{"!":0,"\"":1,"#":2,"$":3,"%":4,"&":5,"'":6,"(":7,")":8,"*":9,"+":10,",":11,"-":12,".":13,"/":14,"0":15,"1":16,"2":17,"3":18,"4":19,"5":20,"6":21,"7":22,"8":23,"9":24,":":25,";":26,"<":27,"=":28,">":29,"?":30,"@":31,"A":32,"B":33,"C":34,"D":35,"E":36,"F":37,"G":38,"H":39,"I":40,"J":41,"K":42,"L":43,"M":44,"N":45,"O":46,"P":47,"Q":48,"R":49,"S":50,"T":51,"U":52,"V":53,"W":54,"X":55,"Y":56,"Z":57,"[":58,"\\":59,"]":60,"^":61,"_":62,"`":63,"a":64,"b":65,"c":66,"d":67,"e":68,"f":69,"g":70,"h":71,"i":72,"j":73,"k":74,"l":75,"m":76,"n":77,"o":78,"p":79,"q":80,"r":81,"s":82,"t":83,"u":84,"v":85,"w":86,"x":87,"y":88,"z":89,"{":90,"|":91,"}":92,"~":93,"¡":94,"¢":95,"£":96,"¤":97,"¥":98,"¦":99,"§":100,"¨":101,"©":102,"ª":103,"«":104,"¬":105,"®":106,"¯":107,"°":108,"±":109,"²":110,"³":111,"´":112,"µ":113,"¶":114,"·":115,"¸":116,"¹":117,"º":118,"»":119,"¼":120,"½":121,"¾":122,"¿":123,"À":124,"Á":125,"Â":126,"Ã":127,"Ä":128,"Å":129,"Æ":130,"Ç":131,"È":132,"É":133,"Ê":134,"Ë":135,"Ì":136,"Í":137,"Î":138,"Ï":139,"Ð":140,"Ñ":141,"Ò":142,"Ó":143,"Ô":144,"Õ":145,"Ö":146,"×":147,"Ø":148,"Ù":149,"Ú":150,"Û":151,"Ü":152,"Ý":153,"Þ":154,"ß":155,"à":156,"á":157,"â":158,"ã":159,"ä":160,"å":161,"æ":162,"ç":163,"è":164,"é":165,"ê":166,"ë":167,"ì":168,"í":169,"î":170,"ï":171,"ð":172,"ñ":173,"ò":174,"ó":175,"ô":176,"õ":177,"ö":178,"÷":179,"ø":180,"ù":181,"ú":182,"û":183,"ü":184,"ý":185,"þ":186,"ÿ":187,"Ā":188,"ā":189,"Ă":190,"ă":191,"Ą":192,"ą":193,"Ć":194,"ć":195,"Ĉ":196,"ĉ":197,"Ċ":198,"ċ":199,"Č":200,"č":201,"Ď":202,"ď":203,"Đ":204,"đ":205,"Ē":206,"ē":207,"Ĕ":208,"ĕ":209,"Ė":210,"ė":211,"Ę":212,"ę":213,"Ě":214,"ě":215,"Ĝ":216,"ĝ":217,"Ğ":218,"ğ":219,"Ġ":220,"ġ":221,"Ģ":222,"ģ":223,"Ĥ":224,"ĥ":225,"Ħ":226,"ħ":227,"Ĩ":228,"ĩ":229,"Ī":230,"ī":231,"Ĭ":232,"ĭ":233,"Į":234,"į":235,"İ":236,"ı":237,"Ĳ":238,"ĳ":239,"Ĵ":240,"ĵ":241,"Ķ":242,"ķ":243,"ĸ":244,"Ĺ":245,"ĺ":246,"Ļ":247,"ļ":248,"Ľ":249,"ľ":250,"Ŀ":251,"ŀ":252,"Ł":253,"ł":254,"Ń":255,"ĠĠ":256,"ĠĠĠĠ":257,"in":258,"Ġt":259,"ĠĠĠĠĠĠĠĠ":260,"er":261,"ĠĠĠ":262,"on":263,"Ġa":264,"re":265,"at":266,"st":267,"en":268,"or":269,"Ġth":270,"ĊĊ":271,"Ġc":272,"le":273,"Ġs":274,"it":275,"an":276,"ar":277,"al":278,"Ġthe":279,";Ċ":280,"Ġp":281,"Ġf":282,"ou":283,"Ġ=":284,"is":285,"ĠĠĠĠĠĠĠ":286,"ing":287,"es":288,"Ġw":289,"ion":290,"ed":291,"ic":292,"Ġb":293,"Ġd":294,"et":295,"Ġm":296,"Ġo":297,"ĉĉ":298,"ro":299,"as":300,"el":301,"ct":302,"nd":303,"Ġin":304,"Ġh":305,"ent":306,"id":307,"Ġn":308,"am":309,"ĠĠĠĠĠĠĠĠĠĠĠ":310,"Ġto":311,"Ġre":312,"--":313,"Ġ{":314,"Ġof":315,"om":316,");Ċ":317,"im":318,"čĊ":319,"Ġ(":320,"il":321,"//":322,"Ġand":323,"ur":324,"se":325,"Ġl":326,"ex":327,"ĠS":328,"ad":329,"Ġ\"":330,"ch":331,"ut":332,"if":333,"**":334,"Ġ}":335,"em":336,"ol":337,"ĠĠĠĠĠĠĠĠĠĠĠĠĠĠĠĠ":338,"th":339,")Ċ":340,"Ġ{Ċ":341,"Ġg":342,"ig":343,"iv":344,",Ċ":345,"ce":346,"od":347,"Ġv":348,"ate":349,"ĠT":350,"ag":351,"ay":352,"Ġ*":353,"ot":354,"us":355,"ĠC":356,"Ġst":357,"ĠI":358,"un":359,"ul":360,"ue":361,"ĠA":362,"ow":363,"Ġ'":364,"ew":365,"Ġ<":366,"ation":367,"()":368,"Ġfor":369,"ab":370,"ort":371,"um":372,"ame":373,"Ġis":374,"pe":375,"tr":376,"ck":377,"âĢ":378,"Ġy":379,"ist":380,"----":381,".ĊĊ":382,"he":383,"Ġe":384,"lo":385,"ĠM":386,"Ġbe":387,"ers":388,"Ġon":389,"Ġcon":390,"ap":391,"ub":392,"ĠP":393,"ĠĠĠĠĠĠĠĠĠĠĠĠĠĠĠ":394,"ass":395,"int":396,">Ċ":397,"ly":398,"urn":399,"Ġ$":400,";ĊĊ":401,"av":402,"port":403,"ir":404,"->":405,"nt":406,"ction":407,"end":408,"Ġde":409,"ith":410,"out":411,"turn":412,"our":413,"ĠĠĠĠĠ":414,"lic":415,"res":416,"pt":417,"==":418,"Ġthis":419,"Ġwh":420,"Ġif":421,"ĠD":422,"ver":423,"age":424,"ĠB":425,"ht":426,"ext":427,"=\"":428,"Ġthat":429,"****":430,"ĠR":431,"Ġit":432,"ess":433,"ĠF":434,"Ġr":435,"os":436,"and":437,"Ġas":438,"ect":439,"ke":440,"rom":441,"Ġ//":442,"con":443,"ĠL":444,"(\"":445,"qu":446,"lass":447,"Ġwith":448,"iz":449,"de":450,"ĠN":451,"Ġal":452,"op":453,"up":454,"get":455,"Ġ}Ċ":456,"ile":457,"Ġan":458,"ata":459,"ore":460,"ri":461,"Ġpro":462,";čĊ":463,"ĉĉĉĉ":464,"ter":465,"ain":466,"ĠW":467,"ĠE":468,"Ġcom":469,"Ġreturn":470,"art":471,"ĠH":472,"ack":473,"import":474,"ublic":475,"Ġor":476,"est":477,"ment":478,"ĠG":479,"able":480,"Ġ-":481,"ine":482,"ill":483,"ind":484,"ere":485,"::":486,"ity":487,"Ġ+":488,"Ġtr":489,"elf":490,"ight":491,"('":492,"orm":493,"ult":494,"str":495,"..":496,"\",":497,"Ġyou":498,"ype":499,"pl":500,"Ġnew":501,"Ġj":502,"ĠĠĠĠĠĠĠĠĠĠĠĠĠĠĠĠĠĠĠ":503,"Ġfrom":504,"Ġex":505,"ĠO":506,"ld":507,"Ġ[":508,"oc":509,":Ċ":510,"Ġse":511,"Ġle":512,"--------":513,".s":514,"{Ċ":515,"',":516,"ant":517,"Ġat":518,"ase":519,".c":520,"Ġch":521,"</":522,"ave":523,"ang":524,"Ġare":525,"Ġint":526,"âĢĻ":527,"_t":528,"ert":529,"ial":530,"act":531,"}Ċ":532,"ive":533,"ode":534,"ost":535,"Ġclass":536,"Ġnot":537,"og":538,"ord":539,"alue":540,"all":541,"ff":542,"();Ċ":543,"ont":544,"ime":545,"are":546,"ĠU":547,"Ġpr":548,"Ġ:":549,"ies":550,"ize":551,"ure":552,"Ġby":553,"ire":554,"Ġ}ĊĊ":555,".p":556,"Ġsh":557,"ice":558,"ast":559,"ption":560,"tring":561,"ok":562,"__":563,"cl":564,"##":565,"Ġhe":566,"ard":567,").":568,"Ġ@":569,"iew":570,"ĉĉĉ":571,"Ġwas":572,"ip":573,"this":574,"Ġu":575,"ĠThe":576,"ide":577,"ace":578,"ib":579,"ac":580,"rou":581,"Ġwe":582,"ject":583,"Ġpublic":584,"ak":585,"ve":586,"ath":587,"oid":588,"Ġ=>":589,"ust":590,"que":591,"Ġres":592,"))":593,"'s":594,"Ġk":595,"ans":596,"yst":597,"unction":598,"********":599,"Ġi":600,"Ġus":601,"pp":602,"one":603,"ail":604,"====":605,"name":606,"Ġstr":607,"Ġ/":608,"Ġ&":609,"ach":610,"div":611,"ystem":612,"ell":613,"Ġhave":614,"err":615,"ould":616,"ull":617,"pon":618,"ĠJ":619,"_p":620,"Ġ==":621,"ign":622,"St":623,".Ċ":624,"Ġpl":625,");ĊĊ":626,"form":627,"put":628,"ount":629,"}ĊĊ":630,"dd":631,"ite":632,"Ġget":633,"rr":634,"ome":635,"ĠâĢ":636,"aram":637,"cc":638,"Ġ*/":639,"ER":640,"In":641,"les":642,"_s":643,"ong":644,"ie":645,"Ġcan":646,"ĠV":647,"erv":648,"pr":649,"Ġun":650,"row":651,"ber":652,"Ġdo":653,"ll":654,"Ġel":655,"Ġself":656,"ated":657,"ary":658,"Ġ.":659,"']":660,"ud":661,"Ġen":662,"ĠTh":663,"ĠĠĠĠĠĠĠĠĠĠĠĠĠĠĠĠĠĠĠĠĠĠĠ":664,"te":665,"_c":666,"uct":667,"Ġab":668,"ork":669,".get":670,"Ġ#":671,"aw":672,"ress":673,"ob":674,"Name":675,"app":676,"['":677,"Ġall":678,"ory":679,"ition":680,"ance":681,"ear":682,"Ġcont":683,"vent":684,"ia":685,"Ġwill":686,"IN":687,"ĠĠĠĠĠĠĠĠĠ":688,"return":689,"Ġ</":690,"data":691,")ĊĊ":692,"Re":693,"ple":694,"ild":695,"ther":696,"Ġyour":697,"\"Ċ":698,"($":699,"Ġout":700,"),":701,"Ġhas":702,"String":703,"so":704,"Ġup":705,"ax":706,"Ġdef":707,"Ġbo":708,"ge":709,"alse":710,"ON":711,"per":712,"ich":713,"Ġbut":714,"ĠĊ":715,"Ġ_":716,"_m":717,"add":718,"quest":719,"odel":720,"self":721,"ery":722,"ft":723,"ens":724,"////":725,"ake":726,".C":727,"Ġgo":728,"Ġfunction":729,"ĠK":730,"ivate":731,"Ġim":732,"Ġconst":733,".t":734,"Ġ*/Ċ":735,");čĊ":736,"Ġvoid":737,"Ġset":738,"ĠSystem":739,"cri":740,"()Ċ":741,"li":742,"ĉif":743,".m":744,"ally":745,"set":746,"ep":747,"âĢĻs":748,"bo":749,"def":750,"',Ċ":751,"Ġme":752,"Ġ!":753,"atch":754,"\">":755,"\",Ċ":756,"ec":757,"ĠIn":758,"ph":759,"Ġ|":760,"_f":761,"Ġvar":762,"ence":763,"Id":764,"ree":765,"ink":766,"lect":767,"ug":768,"eth":769,"Ġelse":770,"----------------":771,"cont":772,"Ġso":773,"atic":774,"Ġlo":775,"pro":776,"ton":777,"ss":778,"own":779,"abel":780,"oint":781,"ous":782,"eld":783,"ST":784,"The":785,"ĠĠĠĠĠĠĠĠĠĠĠĠĠĠĠĠĠĠĠĠĠĠĠĠĠĠĠĠĠĠĠĠ":786,"RE":787,"\":":788,"olor":789,"tp":790,"eg":791,"key":792,"ude":793,"ĠSt":794,"ound":795,"Ġar":796,"\");Ċ":797,"ener":798,"ser":799,"bject":800,"essage":801,"fer":802,"Ġmore":803,"ations":804,"ents":805,"Ġhis":806,"Ġthey":807,".S":808,"ĠY":809,"use":810,"ne":811,"ish":812,"old":813,"_d":814,"io":815,"ield":816,"Ġper":817,"Cont":818,"ings":819,"####":820,"Ġdata":821,"Ġsa":822,"ef":823,"fo":824,"Ġone":825,"eng":826,"Ġdis":827,"AT":828,"Ġname":829,"Ġtrue":830,"val":831,"led":832,".f":833,"Ġne":834,"Ġend":835,".T":836,"cre":837,"ark":838,"log":839,"Ex":840,"error":841,"_id":842,"urre":843,"ange":844,"Ġnull":845,"rray":846,"Ġmy":847,"pan":848,"ict":849,"ator":850,"View":851,"List":852,"ĉreturn":853,"âĢĿ":854,"Ġpre":855,"Ġx":856,"clude":857,"arg":858,"ov":859,".h":860,"Ġ>":861,"Ġtheir":862,"')":863,"irst":864,"ick":865,"gh":866,"LE":867,"OR":868,"Ġprivate":869,"tem":870,"čĊčĊ":871,"user":872,"Ġ)":873,"com":874,".A":875,"\";Ċ":876,"Ġid":877,"read":878,"Ġwho":879,"_b":880,"\">Ċ":881,"Ġtime":882,"Ġman":883,"ry":884,"========":885,"roup":886,"rop":887,"public":888,"vel":889,"umber":890,"ble":891,"Ġwhich":892,"****************":893,"Ġany":894,"Ġfalse":895,"we":896,"Ġvalue":897,"Ġli":898,"\")":899,"nder":900,"gr":901,"Ġno":902,"param":903,"fig":904,".com":905,"Ġapp":906,"_l":907,"ions":908,".D":909,"ĠCh":910,"Ġabout":911,"Ġadd":912,"Ġsu":913,"Ġstring":914,"ID":915,"Ġover":916,"string":917,".l":918,"ource":919,"_C":920,"]Ċ":921,"Ġqu":922,"ĠString":923,"ca":924,"SE":925,"Ġro":926,"sh":927,"ual":928,"Type":929,"son":930,"new":931,"ern":932,"Ġag":933,"AR":934,"];Ċ":935,"].":936,"Ġ?":937,"ical":938,"Ġdes":939,"uth":940,"ix":941,"ays":942,"Ġtype":943,"'t":944,"ault":945,"Ġinter":946,"var":947,".b":948,"Ġpart":949,".d":950,"urrent":951,"IT":952,"EN":953,"enc":954,"(f":955,"ra":956,"value":957,"cho":958,"utton":959,"ose":960,"Ġ!=":961,"ater":962,"Ã©":963,"reate":964,"oll":965,"pos":966,"yle":967,"ng":968,"AL":969,"using":970,"ames":971,"Ġ{čĊ":972,"ates":973,"ely":974,"Ġwork":975,"Ġem":976,"inal":977,"Ġsp":978,"Ġwhen":979,".set":980,"ĠĠĠĠĠĠ":981,"):Ċ":982,"to":983,"quire":984,"indow":985,"lement":986,"pect":987,"ash":988,"[i":989,"Ġuse":990,".F":991,"pec":992,"Ġad":993,"ove":994,"ception":995,"ength":996,"include":997,"ader":998,"ĠĠĠĠĠĠĠĠĠĠĠĠĠĠĠĠĠĠĠĠĠĠĠĠĠĠĠ":999,"atus":1000,"Th":1001,"itle":1002,"rit":1003,"void":1004,"().":1005,"(Ċ":1006,"Ġoff":1007,"Ġother":1008,"Ġ&&":1009,"';Ċ":1010,"ms":1011,"Ġbeen":1012,"Ġte":1013,"ml":1014,"co":1015,"nc":1016,"ervice":1017,"Ġ%":1018,"**Ċ":1019,"ann":1020,"ade":1021,"ĊĊĊĊ":1022,"lock":1023,"const":1024,"ponse":1025,"Ġsup":1026,"++":1027,"date":1028,"Ġacc":1029,"Ġhad":1030,"Ġbu":1031,"ĠRe":1032,"Ġwere":1033,"Ġfile":1034,"Ġwould":1035,"ĠâĢľ":1036,"ven":1037,"iss":1038,"Ġour":1039,"class":1040,"raw":1041,"Ġyear":1042,"Data":1043,"Ġval":1044,"Ġsome":1045,"fter":1046,"ys":1047,"Ġ///":1048,"round":1049,"view":1050,"Ġpe":1051,"Ġthere":1052,"Ġsaid":1053,"du":1054,"of":1055,"line":1056,"/*":1057,"duct":1058,"Ġher":1059,"ĠĠĠĠĠĠĠĠĠĠĠĠĠ":1060,"Res":1061,"Ġco":1062,"Ġcomm":1063,"ise":1064,"min":1065,"ĠĠĠĠĊ":1066,"#include":1067,"ethod":1068,".P":1069,"ute":1070,"Ġass":1071,"Int":1072,"ask":1073,"loc":1074,"Ġlike":1075,"ody":1076,"Ġlet":1077,"load":1078,"Ġam":1079,"rol":1080,"Ġgr":1081,"yp":1082,"Ġalso":1083,"ĠIt":1084,"url":1085,"ific":1086,"ors":1087,"_P":1088,"_n":1089,"igh":1090,"Ġthan":1091,"Com":1092,"AN":1093,"UL":1094,"ating":1095,"ĠThis":1096,"ref":1097,"_S":1098,"Ġstatic":1099,"roll":1100,"Ġjust":1101,"Ġresult":1102,"ian":1103,"idth":1104,"Ġthem":1105,"));Ċ":1106,"der":1107,"reak":1108,"Con":1109,"://":1110,"ule":1111,"...":1112,"arch":1113,"ement":1114,"Ġ<<":1115,"ush":1116,"ense":1117,"arr":1118,"Ġinto":1119,"cess":1120,"amp":1121,"ied":1122,"ument":1123,"Ġ\\":1124,"],":1125,"wo":1126,"als":1127,"Ġwhat":1128,"anc":1129,"Value":1130,"='":1131,"olum":1132,"Ġpos":1133,"ages":1134,"ayer":1135,"Ġsc":1136,"ues":1137,"\")Ċ":1138,"_T":1139,"Ġlist":1140,"(s":1141,"Ġcase":1142,"Ch":1143,"ĉĉĉĉĉ":1144,"////////":1145,"ponent":1146,"Ġz":1147,"Ġkn":1148,"let":1149,"DE":1150,"red":1151,"Ġfe":1152,"Ġ},Ċ":1153,"Ġ,":1154,"(t":1155,"Ġfirst":1156,"');Ċ":1157,"word":1158,"Ġimport":1159,"Ġact":1160,"Ġchar":1161,"CT":1162,"ĠTr":1163,"ople":1164,"={":1165,"ĉf":1166,"ient":1167,"cent":1168,".j":1169,"lection":1170,"))Ċ":1171,"Ġonly":1172,"Ġprint":1173,"mer":1174,".W":1175,"ock":1176,"Ġ--":1177,"Text":1178,"Ġop":1179,"ank":1180,"Ġits":1181,"Ġback":1182,"[\"":1183,"Ġneed":1184,"Ġcl":1185,"Ġsub":1186,"Ġla":1187,"((":1188,".\"":1189,"Object":1190,"Ġstart":1191,"file":1192,"(self":1193,"ner":1194,"ey":1195,"Ġuser":1196,"Ġent":1197,"ĠCom":1198,"its":1199,"ĠCon":1200,"ouble":1201,"ower":1202,"item":1203,"very":1204,"ĠWe":1205,"lick":1206,"ĠQ":1207,"php":1208,"ttp":1209,"':":1210,"ics":1211,"Ġunder":1212,"Ġ*Ċ":1213,".L":1214,");":1215,"ices":1216,"Ġreg":1217,")čĊ":1218,"ĉpublic":1219,"SS":1220,"Ġthen":1221,"reat":1222,"ious":1223,".G":1224,"ek":1225,"irect":1226,"heck":1227,"cript":1228,"ning":1229,"ĠUn":1230,"Ġmay":1231,"ĠWh":1232,"Bo":1233,"Item":1234,"struct":1235,".st":1236,"ream":1237,"ible":1238,"loat":1239,"Ġorg":1240,"und":1241,"sum":1242,"_in":1243,"../":1244,"_M":1245,"Ġhow":1246,"rite":1247,"'Ċ":1248,"To":1249,"ww":1250,"Ġpeople":1251,"index":1252,".n":1253,"http":1254,"(m":1255,"ector":1256,"Ġind":1257,"Ġjav":1258,"],Ċ":1259,"ĠHe":1260,"_st":1261,"ful":1262,"ole":1263,"){Ċ":1264,"Ġshould":1265,"opy":1266,"elp":1267,"ier":1268,"_name":1269,"erson":1270,"ION":1271,"ote":1272,"Ġtest":1273,"Ġbet":1274,"rror":1275,"ular":1276,"ãĢ":1277,"ĠÐ":1278,"bs":1279,"ting":1280,"Ġmake":1281,"Tr":1282,"Ġafter":1283,"arget":1284,"RO":1285,"olumn":1286,"rc":1287,"_re":1288,"define":1289,"Ġright":1290,"right":1291,"day":1292,"Ġlong":1293,"[]":1294,"(p":1295,"td":1296,"cond":1297,"ĠPro":1298,"Ġrem":1299,"ptions":1300,"vid":1301,".g":1302,"Ġext":1303,"Ġ__":1304,"')Ċ":1305,"pace":1306,"mp":1307,"Ġmin":1308,"stance":1309,"air":1310,"action":1311,"wh":1312,"type":1313,"util":1314,"ait":1315,"<?":1316,"IC":1317,"text":1318,"Ġph":1319,"Ġfl":1320,".M":1321,"ccess":1322,"br":1323,"fore":1324,"ersion":1325,"),Ċ":1326,".re":1327,"ateg":1328,"Ġloc":1329,"ins":1330,"-s":1331,"trib":1332,"ĠInt":1333,"Ġarray":1334,",\"":1335,"Pro":1336,"(c":1337,"ession":1338,">ĊĊ":1339,"Ġshe":1340,"\"]":1341,"aph":1342,"Ġexp":1343,"erty":1344,"ĠSe":1345,"Ġpar":1346,"unc":1347,"ET":1348,"Ġread":1349,"print":1350,"Ġrel":1351,"Ġform":1352,"Ġdr":1353,"Exception":1354,"input":1355,"Ġtrans":1356,"########":1357,"order":1358,"By":1359,"Ġaw":1360,"ities":1361,"uff":1362,"play":1363,".add":1364,"ĠâĢĵ":1365,"Ġwant":1366,"Ġcomp":1367,"ments":1368,"Ġ||":1369,"az":1370,"be":1371,"Ġnumber":1372,"Ġrequire":1373,"ĠEx":1374,"Ġcol":1375,"Ġkey":1376,"ember":1377,"Ġtwo":1378,"Ġsize":1379,"Ġwhere":1380,"UT":1381,"result":1382,"ĠĠĠĠĠĠĠĠĠĠĠĠĠĠĠĠĠĠĠĠĠĠĠĠĠĠĠĠĠĠĠ":1383,"ough":1384,"orld":1385,"ood":1386,"uch":1387,"ative":1388,"ger":1389,"arent":1390,"Ġ/*":1391,"Ġarg":1392,"Ġwhile":1393,"(this":1394,"Ġrec":1395,"Ġdif":1396,"State":1397,"Ġspec":1398,"ride":1399,"_F":1400,"Ġlook":1401,"AM":1402,"ility":1403,"eter":1404,"âĢĻt":1405,"ĊĊĊ":1406,"ayout":1407,"--------------------------------":1408,"ager":1409,"Ġcould":1410,"Ġbr":1411,"ends":1412,"ures":1413,"Ġknow":1414,"ets":1415,"ĠIf":1416,"ĠSh":1417,".w":1418,"back":1419,"Ġser":1420,"Ġ+=":1421,"Ġfr":1422,"());Ċ":1423,"Ġhand":1424,"Ind":1425,"ULL":1426,"Im":1427,"();ĊĊ":1428,"Ġmost":1429,"Ġtry":1430,"Ġnow":1431,"rough":1432,">čĊ":1433,"ackage":1434,"Ġhim":1435,"._":1436,"ify":1437,"Ġbreak":1438,"Ġ);Ċ":1439,"ren":1440,"#define":1441,"itt":1442,"Ġap":1443,"ĉc":1444,"(n":1445,"ĠYou":1446,":ĊĊ":1447,"-m":1448,"Ġevery":1449,"ustom":1450,"lient":1451,"ocument":1452,"cription":1453,"Error":1454,"-b":1455,"Ð¾":1456,"][":1457,"trans":1458,"Ġpoint":1459,"Ġstd":1460,"Ġfil":1461,"Time":1462,"Ġmod":1463,"Ġ->":1464,"Ġerror":1465,"ah":1466,"Ġtext":1467,"roller":1468,"lose":1469,"ql":1470,"Ġpol":1471,"></":1472,"Ġshow":1473,"User":1474,"ased":1475,"Ġ{ĊĊ":1476,"Ġfind":1477,"Ð°":1478,"ED":1479,"span":1480,"enu":1481,"Ġcurrent":1482,"Ġused":1483,"cept":1484,"clud":1485,"Ġplay":1486,"Ġlog":1487,"ution":1488,"fl":1489,"Ġsee":1490,"indows":1491,"Ġhelp":1492,"Ġthese":1493,"Ġpass":1494,"Ġdown":1495,"Ġeven":1496,"ason":1497,"uild":1498,"from":1499,"(d":1500,"Ġbl":1501,"label":1502,"else":1503,"Ðµ":1504,"Ġ(!":1505,"ized":1506,"(),":1507,"Ġob":1508,"Ġitem":1509,"ump":1510,"UR":1511,"orn":1512,"Ġdon":1513,"Se":1514,"man":1515,"ample":1516,"tn":1517,"================":1518,"He":1519,"gram":1520,"Ġdid":1521,"wn":1522,"_h":1523,"iver":1524,"Ġsm":1525,"Ġthrough":1526,"ĠAn":1527,"che":1528,"Ġinv":1529,"ouse":1530,"Ġes":1531,"ĠNew":1532,"export":1533,"mary":1534,"uto":1535,"ler":1536,"Ġlast":1537,"Ġevent":1538,"try":1539,"ï¼":1540,"ily":1541,"igned":1542,"ines":1543,"ollow":1544,"icense":1545,"sole":1546,"lear":1547,"(int":1548,"Ġagain":1549,"Ġhigh":1550,"html":1551,"Index":1552,"uthor":1553,"Ġ/**Ċ":1554,"Ġline":1555,"Event":1556,"_D":1557,"Ġdoes":1558,"itial":1559,"Ġcr":1560,"ars":1561,"Ġtem":1562,"cause":1563,"face":1564,"Ġ`":1565,"_A":1566,"Button":1567,"ature":1568,"ected":1569,"ES":1570,"ister":1571,"ĉĊ":1572,"Ġbefore":1573,"ale":1574,"other":1575,"Ġbecause":1576,"roid":1577,"Ġed":1578,"ik":1579,"reg":1580,"ĠDe":1581,"Ġdist":1582,"},Ċ":1583,"Ġstate":1584,"Ġcons":1585,"rint":1586,"att":1587,"Ġhere":1588,"ined":1589,"Ġfinal":1590,"Ġ\"\"":1591,"Key":1592,"LO":1593,"Ġdel":1594,"pty":1595,"thing":1596,"ĠAnd":1597,"Ġrun":1598,"ĠX":1599,"ym":1600,".app":1601,"Ġvery":1602,"ces":1603,"_N":1604,"ared":1605,"ward":1606,"list":1607,"ited":1608,"olog":1609,"itch":1610,"Box":1611,"ife":1612,"Ġac":1613,"Ġmodel":1614,"Ġmon":1615,"Ġway":1616,"lete":1617,"Ġcall":1618,"Ġatt":1619,"Ġcal":1620,"vert":1621,"Ġdec":1622,"lease":1623,"oun":1624,"Ġ});Ċ":1625,"fr":1626,"formation":1627,"etail":1628,"Ġnum":1629,"aj":1630,"query":1631,"Ġwell":1632,"Ġobject":1633,"ĠAs":1634,"Ġyears":1635,"Color":1636,"IS":1637,"Ġdefault":1638,"Wh":1639,"Ġins":1640,"aint":1641,"Ġjava":1642,"Ġsim":1643,"ĠAr":1644,"mon":1645,"til":1646,"();čĊ":1647,"):":1648,"Set":1649,"atter":1650,"Ġview":1651,"Ġpres":1652,"array":1653,"We":1654,"At":1655,"Ġbel":1656,"Ġmany":1657,"Man":1658,"ender":1659,"Ġbeing":1660,"Ġgood":1661,"ĉĉĉĉĉĉ":1662,"ational":1663,"ware":1664,".log":1665,"{čĊ":1666,"Ġusing":1667,"_B":1668,"Ġ:=":1669,"_w":1670,"ists":1671,"lish":1672,"Ġstud":1673,"ĠAl":1674,"Ġgu":1675,"config":1676,"uring":1677,"time":1678,"oken":1679,"amespace":1680,"Ġrequest":1681,"Ġchild":1682,"ĠÃ":1683,"lob":1684,"Ġparam":1685,"Ġ}čĊ":1686,"Ġecho":1687,"function":1688,"********************************":1689,"ps":1690,"Element":1691,"alk":1692,"lication":1693,"by":1694,"Size":1695,"rawing":1696,"Ġperson":1697,"ĠĠĠĠĠĠĠĠĠĠĠĠĠĠĠĠĠ":1698,"\\n":1699,"object":1700,"ince":1701,"En":1702,"File":1703,"uf":1704,"ffect":1705,"AC":1706,"Ġstyle":1707,"summary":1708,"Ġque":1709,"_r":1710,"Ġ($":1711,"Model":1712,"ident":1713,"Ġmethod":1714,"IL":1715,"ott":1716,"less":1717,"ING":1718,"Ġ()":1719,"Ġexpect":1720,"ync":1721,"package":1722,"urs":1723,"Ġprot":1724,"./":1725,"pre":1726,"Ġ)Ċ":1727,"ma":1728,"Ġsur":1729,"Ġfound":1730,"Info":1731,"par":1732,"imes":1733,".e":1734,"ains":1735,"Ġpost":1736,"-d":1737,"olean":1738,"Ġsl":1739,"PE":1740,"Ġsuch":1741,"select":1742,"ainer":1743,"Ġthink":1744,"Ġdiffer":1745,".r":1746,"/**Ċ":1747,"FF":1748,"ool":1749,"plate":1750,"qual":1751,"ĠFor":1752,"Ġmuch":1753,"uc":1754,"(new":1755,"odule":1756,"Ġsom":1757,"Ġhttp":1758,"ĠList":1759,"Ġcount":1760,"Ġinst":1761,"char":1762,"mit":1763,".id":1764,"aking":1765,"Ġgener":1766,"px":1767,"vice":1768,"_data":1769,"ĠNULL":1770,"}čĊ":1771,"idd":1772,"ãĢĤ":1773,"Ġmed":1774,"org":1775,"ider":1776,"ache":1777,"work":1778,"Ġcheck":1779,"ween":1780,"Ġ((":1781,"the":1782,"ants":1783,"><":1784,".B":1785,"-c":1786,"Ġopen":1787,"Ġest":1788,"ĠĠĠĠĠĠĠĠĊ":1789,"Ġnext":1790,"IM":1791,"ÑĤ":1792,"OT":1793,"Ã³":1794,"Ġfollow":1795,"content":1796,"ĠĠĠĠĠĠĠĠĠĠĠĠ":1797,"Ġinclud":1798,"HE":1799,"ĠRes":1800,"Ġhref":1801,"Ð¸":1802,"Ġcar":1803,"ypes":1804,"image":1805,"Un":1806,"Ġbool":1807,"AD":1808,"Ġgame":1809,".Form":1810,"rows":1811,"*/":1812,"velop":1813,".Drawing":1814,"Ġpath":1815,"ision":1816,"Ġeach":1817,"ĠPl":1818,"_type":1819,"Path":1820,"nection":1821,"Ġav":1822,"').":1823,"Ġsupport":1824,"ENT":1825,"rem":1826,"\").":1827,"Ġown":1828,"Ġcor":1829,"count":1830,"miss":1831,"ually":1832,"Ġmem":1833,"std":1834,"ience":1835,"search":1836,"\"ĊĊ":1837,"Form":1838,"Ġsex":1839,"ename":1840,"Ġsign":1841,"Ġet":1842,"ĠĠĠĠĠĠĠĠĠĠ":1843,"','":1844,"ĠApp":1845,"Ġthose":1846,"off":1847,"Ġerr":1848,"Ġsystem":1849,"Ġbest":1850,"code":1851,"Ġsame":1852,"Ġdi":1853,"uss":1854,"Ġcreate":1855,"ather":1856,"Array":1857,".in":1858,"fe":1859,"Service":1860,"UN":1861,"ats":1862,"ĠZ":1863,"alth":1864,"Ġmade":1865,"true":1866,"AB":1867,"Ġmark":1868,"rid":1869,"ified":1870,",čĊ":1871,"yn":1872,"press":1873,"Ġgroup":1874,"Ġfin":1875,"ĠLicense":1876,"Field":1877,"eger":1878,"Ġworld":1879,"iness":1880,"ty":1881,"Ġprocess":1882,"(b":1883,"Ġcre":1884,"arn":1885,"ives":1886,"Ġmain":1887,"ideo":1888,"_g":1889,"AG":1890,"valid":1891,"img":1892,"PI":1893,"Ġcolor":1894,"Ġreport":1895,"Ġtake":1896,"rib":1897,"OM":1898,"Ġday":1899,"Request":1900,"Ġsk":1901,"bers":1902,"ĉs":1903,".Add":1904,"oot":1905,"Image":1906,"Ġcomple":1907,"ollection":1908,"Ġtop":1909,"Ġfree":1910,"AS":1911,"De":1912,"ĠOn":1913,"IG":1914,"eta":1915,"Date":1916,"Ġaction":1917,"Over":1918,"itor":1919,"ĠĠĠĠĠĠĠĠĠĠĠĠĠĠĠĠĠĠĠĠĠĠĠĠĠĠĠĠĠĠĠĠĠĠĠ":1920,"not":1921,"Ġindex":1922,"her":1923,"icon":1924,"On":1925,";čĊčĊ":1926,"ivity":1927,"mand":1928,".Windows":1929,"OL":1930,"Ġreal":1931,"Ġmax":1932,"land":1933,"....":1934,"raph":1935,"Ġbuild":1936,"leg":1937,"assword":1938,"?ĊĊ":1939,"âĢ¦":1940,"ook":1941,"uck":1942,"Ġmessage":1943,"test":1944,"ivers":1945,"Ġinput":1946,"Ġart":1947,"Ġbetween":1948,"Get":1949,"enter":1950,"ground":1951,"ene":1952,"Ã¡":1953,".length":1954,"Node":1955,"(i":1956,"Class":1957,"for":1958,"ĠâĢĶ":1959,"ten":1960,"oin":1961,"Ġke":1962,"ui":1963,"ĠIN":1964,"Ġtable":1965,"sub":1966,"ĠLe":1967,"Ġhead":1968,"Ġmust":1969,"////////////////":1970,".util":1971,"Context":1972,"Ġorder":1973,"Ġmov":1974,"over":1975,"Ġcontin":1976,"Ġsay":1977,"static":1978,".Text":1979,"ĠclassName":1980,"pany":1981,"Ġter":1982,"head":1983,"rg":1984,"Ġproduct":1985,"This":1986,".âĢĿ":1987,"ĠBut":1988,"loy":1989,"Ġdouble":1990,"sg":1991,"Ġplace":1992,".x":1993,"message":1994,"Ġinformation":1995,"private":1996,"Ġoper":1997,"ced":1998,"db":1999,"\"></":2000,"Param":2001,"icle":2002,"Ġweek":2003,"Ġprop":2004,"table":2005,"idget":2006,"place":2007,"Prop":2008,"ĠAll":2009,"els":2010,"box":2011,".ĊĊĊĊ":2012,".R":2013,"ĠTo":2014,"iter":2015,"Sh":2016,"uration":2017,"older":2018,"_list":2019,"come":2020,"Ġsw":2021,"ization":2022,"ĉfor":2023,"bl":2024,"Ġprogram":2025,"(e":2026,"ape":2027,"check":2028,".Forms":2029,"Ġund":2030,"ategory":2031,"ags":2032,"Ġresponse":2033,"US":2034,"request":2035,"Ġstruct":2036,"escription":2037,"Ġcode":2038,"_H":2039,"uffer":2040,"Ġwithout":2041,"lobal":2042,"Manager":2043,"ilter":2044,"PO":2045,"ĉthis":2046,"option":2047,"Ġsol":2048,"Ġ===":2049,"akes":2050,"Controller":2051,"Message":2052,"Ġref":2053,"ever":2054,"ĠSo":2055,"aining":2056,".append":2057,"Ġstill":2058,"Ġprovid":2059,"Ġassert":2060,"med":2061,"Ġcap":2062,"usiness":2063,"Ġrep":2064,"tings":2065,"ved":2066,".N":2067,"api":2068,"OD":2069,"Ġfield":2070,"iven":2071,"oto":2072,"âĢľ":2073,"col":2074,"(x":2075,"ght":2076,"Result":2077,"Code":2078,".is":2079,"link":2080,"Ġcour":2081,"An":2082,"Ġteam":2083,"ĉint":2084,"ift":2085,"Ġsecond":2086,"Ġgoing":2087,"Ġrange":2088,"_E":2089,"ness":2090,"Ġfam":2091,"Ġnil":2092,"ĠCont":2093,"ailable":2094,"utes":2095,"atab":2096,"Ġfact":2097,"Ġvis":2098,"(&":2099,"ĠAN":2100,"Al":2101,"title":2102,"Ġandroid":2103,"CE":2104,"\\\"":2105,"irt":2106,"Ġwrit":2107,"Ð½":2108,"ĉm":2109,"ftware":2110,"ond":2111,"Ġret":2112,"osition":2113,"Ġhome":2114,"Ġleft":2115,"args":2116,"meric":2117,"Ġdirect":2118,"oci":2119,"Pl":2120,"As":2121,"ret":2122,"ado":2123,"Of":2124,"chn":2125,"ĠGet":2126,"ee":2127,"ross":2128,"();":2129,"____":2130,".ph":2131,"It":2132,"oute":2133,"Ġexper":2134,"chool":2135,"www":2136,"},":2137,"Ġallow":2138,"ĠÂ":2139,"())":2140,"size":2141,"ism":2142,"ai":2143,"tract":2144,"ane":2145,"...ĊĊ":2146,"context":2147,"Ġbeg":2148,"CH":2149,"Ġpage":2150,"hip":2151,"no":2152,"core":2153,"sp":2154,"Ġdifferent":2155,"iable":2156,"ĠMe":2157,"_IN":2158,"button":2159,"ĠIs":2160,"ervices":2161,"Ġca":2162,"Ġaround":2163,"App":2164,"ration":2165,"Ġrece":2166,"Ġreally":2167,"Ġimage":2168,"Ġtarget":2169,"Ġdep":2170,"opyright":2171,"tra":2172,"ingle":2173,"ital":2174,"Layout":2175,"Ġboth":2176,"Override":2177,"arm":2178,"=>":2179,"aterial":2180,"iled":2181,"Ġput":2182,"Qu":2183,"ÑĢ":2184,"ung":2185,"map":2186,"ĉĉĉĉĉĉĉĉ":2187,"Ġlevel":2188,"Component":2189,"book":2190,"creen":2191,"_RE":2192,"Ġconfig":2193,"ãģ":2194,"Or":2195,".data":2196,"Ġdocument":2197,"\",\"":2198,"tribute":2199,"ux":2200,"Log":2201,"ference":2202,"post":2203,"_e":2204,"Ġlocal":2205,"andom":2206,"assert":2207,"Val":2208,"lected":2209,"ina":2210,"atabase":2211,"Add":2212,"Ġcontent":2213,".print":2214,"signed":2215,"ric":2216,".\"ĊĊ":2217,"Ġfa":2218,"!ĊĊ":2219,"-f":2220,"ived":2221,"Ġquest":2222,".ex":2223,"Ġfloat":2224,"Ġdevelop":2225,"Ð¾Ð":2226,"Map":2227,"ading":2228,"Ġposs":2229,"UE":2230,"namespace":2231,"_O":2232,"ĉb":2233,".Get":2234,">(":2235,"json":2236,"etails":2237,"Ġtoo":2238,"Ġextends":2239,"ĠNone":2240,"Ġfore":2241,"(String":2242,"format":2243,"Ġgreat":2244,"inter":2245,"cale":2246,"Ñģ":2247,"ron":2248,"iving":2249,"Ent":2250,"ency":2251,"xt":2252,"oy":2253,"Ġmonth":2254,"Ġhapp":2255,"Ġsuper":2256,"bar":2257,"default":2258,"_de":2259,"ords":2260,"ln":2261,"({Ċ":2262,"ĠInd":2263,"ases":2264,"Ġtitle":2265,"Ġcontext":2266,"oh":2267,"-p":2268,"Em":2269,"Ġmet":2270,"Test":2271,"Ġlife":2272,"_v":2273,"ĠUS":2274,"UI":2275,"ocation":2276,"md":2277,"Ġ[Ċ":2278,"Ġ]":2279,"sw":2280,"Ġincre":2281,"script":2282,"ential":2283,"ways":2284,".de":2285,"Ġsrc":2286,"Ġcatch":2287,"ĠAmeric":2288,"//Ċ":2289,"ĠĠĠĠĠĠĠĠĠĠĠĠĠĠ":2290,"Ġpay":2291,"plit":2292,"âĢĶ":2293,"Ġcoun":2294,"obj":2295,".php":2296,"Ġchange":2297,"ething":2298,"'re":2299,"aster":2300,"los":2301,"lation":2302,"ĠĠĊ":2303,"Le":2304,"Ã¤":2305,"({":2306,"ready":2307,"ĠNo":2308,"Ġposition":2309,"Ġold":2310,"Ġbook":2311,"abled":2312,"bug":2313,"Hand":2314,"};ĊĊ":2315,"isplay":2316,"aving":2317,"Ġgover":2318,"Ġversion":2319,"System":2320,"nect":2321,"response":2322,"Style":2323,"Up":2324,"angu":2325,"Ġthree":2326,"init":2327,"ero":2328,"Ġlaw":2329,"endif":2330,"Ġbase":2331,"email":2332,"(l":2333,"_V":2334,"Ġconf":2335,"ATE":2336,"Ġduring":2337,"tes":2338,"Ġconsole":2339,"ĠPr":2340,"Ġspe":2341,"ves":2342,"path":2343,"ialog":2344,"dition":2345,"_to":2346,"ards":2347,"Ġagainst":2348,"etwork":2349,"ĠPh":2350,"_L":2351,"cur":2352,"imit":2353,"With":2354,"Ġpower":2355,"ium":2356,"';ĊĊ":2357,"Ġwom":2358,"left":2359,"ources":2360,"atri":2361,"ĠIm":2362,"ĠMan":2363,"orth":2364,"${":2365,"quals":2366,"ese":2367,"_size":2368,"Ġiss":2369,"otal":2370,"-g":2371,"ique":2372,"rame":2373,"Ġwidth":2374,"erg":2375,")(":2376,"ittle":2377,"TR":2378,"ĠThey":2379,"ences":2380,"rl":2381,"ons":2382,"Ġlabel":2383,".y":2384,"-t":2385,"update":2386,"anel":2387,"sc":2388,".to":2389,"Ġproject":2390,"Ã¼":2391,"Ġelement":2392,"Ġsuccess":2393,"ĉĉĊ":2394,".sh":2395,"ram":2396,"ched":2397,"())Ċ":2398,"Ġ(Ċ":2399,"Ġdate":2400,"Ġtot":2401,"_ST":2402,"All":2403,"ification":2404,"ĉvar":2405,"Ġtri":2406,"chem":2407,"my":2408,"Ġbig":2409,"ĠAd":2410,"ĠAt":2411,"ots":2412,"num":2413,"Act":2414,"Ġmap":2415,"era":2416,"cope":2417,".$":2418,",âĢĿ":2419,"Ġpop":2420,"Ġfew":2421,"Ġlen":2422,"uid":2423,"eters":2424,"ules":2425,"ÃŃ":2426,"source":2427,"https":2428,"Ġdem":2429,"Ġear":2430,"################":2431,"Ġmatch":2432,"ories":2433,"aces":2434,"ĠCl":2435,"Ġnode":2436,"irc":2437,"local":2438,"unity":2439,"};Ċ":2440,"Ġanother":2441,"<<":2442,"ogle":2443,"Ġsit":2444,"ework":2445,"TE":2446,".I":2447,"NS":2448,"ology":2449,"ought":2450,".Cont":2451,">>":2452,"Ġcare":2453,"state":2454,"ĉprivate":2455,"Ġeffect":2456,"++)":2457,"_file":2458,"ending":2459,"Line":2460,"For":2461,"ior":2462,"ĠSc":2463,"Ġfun":2464,".Size":2465,"ĉelse":2466,"])":2467,"start":2468,"vious":2469,"Ġ},":2470,"ours":2471,"Ġleg":2472,"Ġservice":2473,"Ġsince":2474,"iron":2475,"Label":2476,"Ġnon":2477,"Ġlos":2478,"iction":2479,"Ġfull":2480,"acter":2481,"board":2482,"gress":2483,"Ġturn":2484,"ither":2485,".size":2486,"Ġbody":2487,"resh":2488,"eturn":2489,"(_":2490,"yles":2491,"ormal":2492,"pi":2493,"Ġsomething":2494,"!--":2495,"uint":2496,"Ġprodu":2497,"Ġstand":2498,"Ġproble":2499,"Ġavailable":2500,"mt":2501,"ĠBl":2502,"Ġ...":2503,"Ġblock":2504,"Input":2505,"Ġkeep":2506,"Count":2507,"open":2508,"Ġ['":2509,"Ġthrow":2510,"uilder":2511,"Action":2512,"Ġthings":2513,"True":2514,"Ġurl":2515,"ĠBo":2516,"printf":2517,"Ġred":2518,"js":2519,".create":2520,"ĠOr":2521,"Status":2522,"Instance":2523,"Ġcontrol":2524,"Ġcome":2525,"Ġcustom":2526,"location":2527,"model":2528,"ĠčĊ":2529,"Ġsource":2530,"Ġeas":2531,".out":2532,"]ĊĊ":2533,"oney":2534,"Ġawait":2535,"Ġpartic":2536,"AP":2537,"ublish":2538,"odes":2539,"_pro":2540,"ply":2541,"riter":2542,"Ġprov":2543,"Ġmill":2544,"HT":2545,"])Ċ":2546,"Ġchang":2547,"Ġask":2548,"ĠĠĠĠĠĠĠĠĠĠĠĠĠĠĠĠĠĠĠĠĠ":2549,"Ġoutput":2550,"Ġemail":2551,".push":2552,"Ġ}čĊčĊ":2553,"ination":2554,"atrix":2555,"Table":2556,"uccess":2557,"]);Ċ":2558,"ĠĠĠĠĠĠĠĠĠĠĠĠĠĠĠĠĠĠĠĠĠĠĠĠĠĠĠĠĠĠĠĠĠĠĠĠĠĠĠ":2559,"Ġdisc":2560,"([":2561,"Ġbusiness":2562,"height":2563,".html":2564,"ta":2565,"field":2566,"Ġrequired":2567,"_R":2568,"Ġgovern":2569,"}čĊčĊ":2570,"lex":2571,".,":2572,"ĠSet":2573,"urch":2574,"///":2575,"ts":2576,"af":2577,"Ġmight":2578,"istory":2579,"Str":2580,"Ġnever":2581,"Response":2582,"arse":2583,"ada":2584,"ĠHow":2585,"Ġ*)":2586,"Ġ;":2587,"Ġhard":2588,"Ad":2589,"Ġintern":2590,"used":2591,"(data":2592,"mod":2593,"annel":2594,"Ġnp":2595,"ugg":2596,"Ġ/>Ċ":2597,"Ġcalled":2598,"body":2599,"Ġcho":2600,"(r":2601,"_set":2602,"ird":2603,"Ġ>=":2604,"Ġ};Ċ":2605,"Ġoptions":2606,"ĠGener":2607,"Ġheight":2608,"Point":2609,"You":2610,"ety":2611,"Click":2612,"Ġsmall":2613,"Ġide":2614,"Ġaccess":2615,"anguage":2616,"Ġprotected":2617,"Ġjob":2618,"ĠThere":2619,"Def":2620,"Ġaddress":2621,"Ġuint":2622,"Not":2623,"oo":2624,"aps":2625,"<div":2626,"ained":2627,"atur":2628,"Ġsum":2629,"-w":2630,"ĠDate":2631,"Ġlittle":2632,"Ġfri":2633,"YPE":2634,"Ġport":2635,"eh":2636,"pring":2637,"_path":2638,"Ġstatus":2639,"aim":2640,"bool":2641,"Ġappe":2642,"Ġos":2643,".name":2644,"ension":2645,"_G":2646,"Ġupdate":2647,"Config":2648,"aff":2649,"ERR":2650,"Ġ<=":2651,"ately":2652,"#if":2653,"uction":2654,"ĠTe":2655,"Ġlink":2656,"ĠUser":2657,".find":2658,".org":2659,"me":2660,"Ġgiven":2661,"Out":2662,"#endif":2663,"Ġbetter":2664,"Page":2665,"Ġfeel":2666,"enn":2667,"ML":2668,"Ġalready":2669,"Ġincluding":2670,"oogle":2671,"ru":2672,"ically":2673,"prop":2674,"lean":2675,"outer":2676,"Ġalways":2677,"ording":2678,"If":2679,"orage":2680,"Ġparent":2681,"vis":2682,"ĉĉĉĉĉĉĉ":2683,"Ġgot":2684,"stand":2685,"Ġless":2686,"/s":2687,"ĠAss":2688,"apt":2689,"ired":2690,"ĠAdd":2691,"Ġaccount":2692,"ploy":2693,"Ġder":2694,"resent":2695,"Ġlot":2696,"Ġvalid":2697,"ĉd":2698,"Ġbit":2699,"ponents":2700,"Ġfollowing":2701,"_ex":2702,"SON":2703,"Ġsure":2704,"ocial":2705,"Ġprom":2706,"erties":2707,"header":2708,".pro":2709,"Ġboolean":2710,"Ġsearch":2711,"ken":2712,"Ġorig":2713,"Ġer":2714,"Ed":2715,"EM":2716,"aut":2717,"ling":2718,"ality":2719,"ById":2720,"bed":2721,"ĉcase":2722,"ether":2723,"posit":2724,"Ġinvest":2725,"ĠOR":2726,"Ġsays":2727,"mission":2728,"AME":2729,"Ġtemp":2730,"oad":2731,"Ġrest":2732,"info":2733,"Ġinterest":2734,"Arg":2735,"Ġperform":2736,"pons":2737,"ĠView":2738,"Ġver":2739,"lib":2740,"(const":2741,"Util":2742,"Listener":2743,"arge":2744,"Ġmult":2745,"Ġdie":2746,"Ġsite":2747,"../../":2748,"EL":2749,"Ġvalues":2750,"Ġ})Ċ":2751,"pen":2752,"No":2753,"icro":2754,"Ġbeh":2755,"Ġ'./":2756,"acy":2757,"rec":2758,"()->":2759,"ĉĠĠĠ":2760,"\"))":2761,"Content":2762,"_W":2763,"plement":2764,"Ġwon":2765,"Ġvideo":2766,"adi":2767,"point":2768,"%%":2769,"Ġgl":2770,"erved":2771,"viron":2772,"IF":2773,"uted":2774,"ãĥ":2775,"'m":2776,"Ġcert":2777,"Ġprof":2778,"Ġcell":2779,"ari":2780,"Ġplayer":2781,"ais":2782,"Ġcost":2783,"Ġhum":2784,"(R":2785,"Ġoffic":2786,"ks":2787,".text":2788,"atures":2789,"Ġtotal":2790,"Ġ*/ĊĊ":2791,"ope":2792,"Ġstat":2793,"UM":2794,"Ġload":2795,"ights":2796,"Ġclear":2797,"uro":2798,"Ġtechn":2799,"upport":2800,"IR":2801,"Ġrow":2802,"Ġseem":2803,"Ġq":2804,"Ġshort":2805,"ĠNot":2806,"ipp":2807,"Group":2808,"section":2809,"max":2810,"irl":2811,"Ġoverride":2812,"Ġcompany":2813,"Ġdone":2814,"\");čĊ":2815,"Ġgre":2816,".Re":2817,"Ġbelie":2818,"rist":2819,"Ġhealth":2820,"ANT":2821,"()ĊĊ":2822,"ĠBe":2823,".value":2824,"ĠGr":2825,"ottom":2826,"Ġargs":2827,"PT":2828,"status":2829,"func":2830,"uments":2831,"-h":2832,"Number":2833,":čĊ":2834,"ĠLog":2835,"erver":2836,"Ġ),Ċ":2837,"ament":2838,"Ġobj":2839,"inc":2840,"Ġchildren":2841,"icy":2842,"IZ":2843,"ands":2844,"ably":2845,"Ġdistrib":2846,"Ġcur":2847,"erial":2848,"Ġdays":2849,"reated":2850,"rect":2851,"-l":2852,"irm":2853,"idden":2854,"omb":2855,"Ġinitial":2856,".js":2857,"Ġâ":2858,"Query":2859,"Ġonline":2860,"imal":2861,".con":2862,"au":2863,"Url":2864,"control":2865,"irection":2866,"Ġinstance":2867,"ORT":2868,"ĠFr":2869,"where":2870,"Ġjavax":2871,"Ġorgan":2872,"apter":2873,"Ġreason":2874,"options":2875,"ĠMar":2876,"(a":2877,"Ġwithin":2878,".âĢĿĊĊ":2879,"ODE":2880,"_DE":2881,"admin":2882,"ended":2883,"Ġdesign":2884,"ĠData":2885,"une":2886,"ĠFile":2887,"root":2888,"Ġcent":2889,"Ġarr":2890,"_add":2891,"len":2892,"page":2893,",'":2894,"_str":2895,"Ġbro":2896,"ability":2897,"outh":2898,"/c":2899,"pose":2900,"irtual":2901,"earch":2902,"_url":2903,"argin":2904,"Http":2905,"Ġschool":2906,"ava":2907,"Ġconsider":2908,".label":2909,"ĠArray":2910,"web":2911,"opt":2912,".println":2913,"ulation":2914,"Ġfunc":2915,"PL":2916,"Ġ\"\\":2917,"ĠText":2918,"actory":2919,"(function":2920,"null":2921,"Ġeng":2922,"down":2923,"Ġinclude":2924,"ĠEn":2925,"ĠDr":2926,"Ġdb":2927,"!!":2928,"side":2929,"Ġinit":2930,"quired":2931,"ĠShe":2932,"Column":2933,"react":2934,"Ġann":2935,"Ġstop":2936,"Ġlater":2937,"ĠThat":2938,"ention":2939,"df":2940,"UG":2941,"ILE":2942,"Ġclient":2943,"raft":2944,"ffer":2945,"POST":2946,"elper":2947,"Ġlove":2948,"quote":2949,"oud":2950,"Ġjson":2951,"Ġable":2952,"Ġmen":2953,"AX":2954,"ĠCopyright":2955,"Ã¶":2956,"avig":2957,"req":2958,"Client":2959,"});Ċ":2960,".Com":2961,"erc":2962,"ilt":2963,"pecial":2964,"_com":2965,"room":2966,".Name":2967,"Ġgive":2968,"amb":2969,"ike":2970,"Ġcondition":2971,"client":2972,"ators":2973,":\"":2974,"Ġcopy":2975,"uture":2976,"iversity":2977,"ernal":2978,"{{":2979,"ĠCan":2980,"ounc":2981,"do":2982,"Ġocc":2983,"Ġappro":2984,"thers":2985,"ze":2986,"Ġeither":2987,"ĠFl":2988,"Ġimportant":2989,"Ġlead":2990,"attr":2991,"ART":2992,"Equal":2993,"Ġda":2994,"etch":2995,"entity":2996,"Ġfamily":2997,"adding":2998,"Ġoption":2999,"Ġexist":3000,"ica":3001,"ĠObject":3002,"'ve":3003,"vers":3004,"itional":3005,"output":3006,"ĠTrue":3007,"ĠOF":3008,"_time":3009,"Ġoffer":3010,"Ġ});ĊĊ":3011,"HER":3012,"egin":3013,"\"\"":3014,"Ġwater":3015,"Ġche":3016,"ĠMy":3017,"ored":3018,"Ġstep":3019,"ances":3020,"CK":3021,"AY":3022,"à¸":3023,"struction":3024,"(C":3025,"ouch":3026,"Stream":3027,"active":3028,"ama":3029,"Entity":3030,"product":3031,"(){Ċ":3032,"Ġgovernment":3033,"ĠID":3034,"ajor":3035,"And":3036,"Ġdisplay":3037,"Ð»":3038,"Ġtimes":3039,"Ġfour":3040,"Ġfar":3041,"Ġpresent":3042,"ĠNS":3043,"Ġ\\Ċ":3044,"uest":3045,"Ġbas":3046,"echo":3047,"child":3048,"ifier":3049,"Handler":3050,"Ġlib":3051,"Property":3052,"translation":3053,"Ġroom":3054,"Ġonce":3055,"Ġ[]":3056,"center":3057,"================================":3058,"Ġresults":3059,"Ġcontinue":3060,"Ġtalk":3061,"_get":3062,"Ġgrow":3063,".sw":3064,"eb":3065,"ĠPublic":3066,"OP":3067,"ecute":3068,"ols":3069,"Ġ**":3070,"\");ĊĊ":3071,"Ġmass":3072,"ured":3073,".class":3074,"omic":3075,"Ġmean":3076,"ips":3077,"Ġaut":3078,");čĊčĊ":3079,"Ġuntil":3080,"Ġmarket":3081,"Ġarea":3082,"uit":3083,"Ġlength":3084,"ĠWith":3085,"structor":3086,"event":3087,"\"><":3088,"ĠSp":3089,"IV":3090,"Ġmus":3091,"iff":3092,"Ġkind":3093,"author":3094,"ounds":3095,"mb":3096,"_key":3097,"width":3098,"pository":3099,"Ġlight":3100,"uk":3101,"Row":3102,"ohn":3103,"alf":3104,"vironment":3105,"apper":3106,"ollections":3107,"Ġside":3108,"_info":3109,"Ġexample":3110,"imary":3111,"Ġwr":3112,"Ġcamp":3113,"cribe":3114,"\"/":3115,"Ġmiss":3116,"way":3117,"Ġbased":3118,"Ġplan":3119,"Vis":3120,"omain":3121,"unk":3122,"Ġaway":3123,"UP":3124,"<T":3125,"OS":3126,"iod":3127,"ĠMon":3128,"âĢĻre":3129,"Ġlik":3130,"Ã§":3131,"ively":3132,".v":3133,"imer":3134,"izer":3135,"Sub":3136,"Ġbutton":3137,"ĠUp":3138,"Ġexperience":3139,"CL":3140,"Ġrender":3141,"_value":3142,"Ġnear":3143,"URL":3144,"alt":3145,"Ġcountry":3146,"ibility":3147,"(),Ċ":3148,"ead":3149,"Ġauthor":3150,"Ġspecific":3151,"base":3152,"(name":3153,"ones":3154,"ĠDo":3155,"Ġalong":3156,"year":3157,"Ġexpress":3158,".'":3159,"env":3160,"Ġbegin":3161,"Ġsoftware":3162,"Ġimp":3163,"Ġwin":3164,"Ã³n":3165,"Ġthing":3166,"Trans":3167,"ĠTHE":3168,"Ġ<?":3169,"Ġwhy":3170,"Ġdoesn":3171,"ij":3172,"ging":3173,"ĉg":3174,"Ġsingle":3175,"offset":3176,"arning":3177,"ograph":3178,"ley":3179,"_count":3180,"Ġanal":3181,"create":3182,"/m":3183,"ĠReg":3184,"unch":3185,"=$":3186,"isk":3187,"Ġrights":3188,"(M":3189,"Ġ\"\"\"Ċ":3190,"aper":3191,".model":3192,"Ġpo":3193,"empty":3194,"artment":3195,"Ġant":3196,"ĠWhen":3197,"Ġwomen":3198,"ĠEd":3199,"Ġseason":3200,"Ġdest":3201,"Ã£":3202,"(h":3203,"Ġpossible":3204,"Ġsever":3205,"Ġbtn":3206,"Ġdidn":3207,"Ġsent":3208,"Ġenc":3209,"Ġcommand":3210,"Ġ],Ċ":3211,"_x":3212,"Ġrecent":3213,"olution":3214,"vector":3215,"ĠBy":3216,"ĠMay":3217,"ĠAct":3218,"»¿":3219,"Ġmoney":3220,"INT":3221,"bsite":3222,"ĉp":3223,".čĊ":3224,"ï»¿":3225,"sl":3226,"attern":3227,"ĠClass":3228,"Ġtold":3229,"udio":3230,"current":3231,"Ġequ":3232,"Ġauto":3233,"ĠState":3234,"da":3235,"msg":3236,"));ĊĊ":3237,"Ġworking":3238,"Ġquery":3239,"ĠBr":3240,"Ġwindow":3241,"auth":3242,"only":3243,"ĉt":3244,"Ġleast":3245,"agn":3246,"Ġexpl":3247,"itter":3248,"aring":3249,"Ġcolumn":3250,"ĠGeneral":3251,"\":\"":3252,"eral":3253,"rior":3254,"Ġrecord":3255,"IB":3256,"EX":3257,"Ġdat":3258,"Ġmaking":3259,"ued":3260,"ĠCar":3261,"emp":3262,"\".":3263,"ĠMed":3264,"Ġclose":3265,"Ġpercent":3266,"Ġpast":3267,"(g":3268,":(":3269,"Ġwrite":3270,"Ġmove":3271,"Ġpat":3272,"Control":3273,".To":3274,"Ġvi":3275,"*/Ċ":3276,"inate":3277,"'ll":3278,"aged":3279,"Null":3280,"Ġspecial":3281,"IZE":3282,"Ġcity":3283,"/*Ċ":3284,"ĠEng":3285,"ixed":3286,"inary":3287,"py":3288,"Ġeff":3289,"ario":3290,"Ġtell":3291,"avor":3292,"Ġselect":3293,"level":3294,"imum":3295,"oper":3296,"Builder":3297,"IP":3298,"'),Ċ":3299,"esc":3300,"Ġfont":3301,"\";ĊĊ":3302,"ĠAm":3303,"ished":3304,"ills":3305,"Inter":3306,"OW":3307,"Ġcourse":3308,"Ġlate":3309,"iddle":3310,"Ġamount":3311,"Ġasync":3312,"ino":3313,"cul":3314,"Ġì":3315,"andle":3316,"_user":3317,"Ġben":3318,"ĠCal":3319,"Ġ$_":3320,"ĠRep":3321,"Ġenough":3322,"Token":3323,".user":3324,"(j":3325,"Sc":3326,"Width":3327,"now":3328,"atform":3329,"Ġlooking":3330,"Ġhold":3331,"Module":3332,"ITY":3333,"vo":3334,"ison":3335,".Data":3336,"yc":3337,"Ġpot":3338,"ĠTrump":3339,"idual":3340,"ides":3341,"rt":3342,"Ġproperty":3343,"ĠĠĠĠĠĠĠĠĠĠĠĠĠĠĠĠĠĠĠĠĠĠĠĠĠĠĠĠĠĠĠĠĠĠĠĠĠĠĠĠĠĠĠ":3344,"amework":3345,"go":3346,"Ġlow":3347,"Ġpara":3348,"Ġprice":3349,"ury":3350,"Ġtoday":3351,"roy":3352,"Ġ'/":3353,"Ġpolit":3354,"Ġ''":3355,"ymb":3356,"Ph":3357,"Ġadv":3358,"Ġattack":3359,"ĠSte":3360,"ROM":3361,"ana":3362,"Ġmeans":3363,"Ġstory":3364,"ids":3365,"aken":3366,"Ġmeet":3367,"Ġmom":3368,"ĠâĢĺ":3369,"Ġ?>":3370,"Ġden":3371,"obile":3372,"change":3373,"ĠĠĠĠĠĠĠĠĠĠĠĠĊ":3374,"ici":3375,"na":3376,"ĠForm":3377,"Ġsort":3378,"Select":3379,"pare":3380,"Ġthought":3381,"_con":3382,"Ġtask":3383,"ocus":3384,"ĠDE":3385,"ĠMin":3386,"Ġopt":3387,"ĉbreak":3388,"umer":3389,"KE":3390,"then":3391,"Ġdet":3392,"ĠTest":3393,"ports":3394,"Ġreview":3395,"('/":3396,"move":3397,"Ġswitch":3398,"ERT":3399,"patch":3400,"annot":3401,"ãĤ":3402,"Ġabove":3403,"itive":3404,"Ġquestion":3405,"ĠQu":3406,"ãĢĤĊĊ":3407,"gle":3408,"Ġword":3409,"Ġprovide":3410,"ĠReturn":3411,"Ġresearch":3412,"Ã£o":3413,"ustr":3414,"Ġpublish":3415,"chema":3416,"}}":3417,"ĠCON":3418,"-in":3419,"allback":3420,"Ġcover":3421,"\\\\":3422,"color":3423,"ĠIS":3424,"Ġwhether":3425,"imate":3426,"isc":3427,"Bar":3428,"Ġdiv":3429,"Be":3430,"ourn":3431,"Ġhaving":3432,"lem":3433,"player":3434,"abs":3435,"amera":3436,"ney":3437,"Ġexc":3438,"gether":3439,"plied":3440,"ao":3441,"[$":3442,"Ġ++":3443,"ipe":3444,"show":3445,"/d":3446,"[:":3447,"agement":3448,"lev":3449,"_ID":3450,"rary":3451,"ades":3452,"_se":3453,"ause":3454,"Ġemploy":3455,"Ġ*/čĊ":3456,"Ġfre":3457,"Ġ'@":3458,"Ġcomplet":3459,"Ġlarge":3460,"ral":3461,"\\x":3462,"Ġfac":3463,"<String":3464,"Ġcreated":3465,"uper":3466,".state":3467,"Ġhost":3468,"eneric":3469,"/b":3470,"(!":3471,"while":3472,"ias":3473,"BUG":3474,"Ġ);ĊĊ":3475,"Ġrole":3476,"Reg":3477,"ĠColor":3478,"Start":3479,"Ġporn":3480,"top":3481,"Ġweb":3482,"Ġdev":3483,"Ġdeal":3484,"++)Ċ":3485,"Integer":3486,"position":3487,".on":3488,"Ġ(\"":3489,"ä¸":3490,"Ġproblem":3491,"sv":3492,"Ġpress":3493,"ABLE":3494,"ATION":3495,"ĠSee":3496,"anch":3497,"Ġthough":3498,"leep":3499,"Ġ<!--":3500,"Ġpoints":3501,"ĠĠĠĠĠĠĠĠĠĠĠĠĠĠĠĠĠĠĠĠĠĠĠĠĠ":3502,".J":3503,"Ġ::":3504,"ptr":3505,"DB":3506,"++;Ċ":3507,".png":3508,"node":3509,"soft":3510,"pond":3511,"Ġever":3512,"----------------------------------------------------------------":3513,"Menu":3514,"('#":3515,"Ġservices":3516,"pg":3517,"})Ċ":3518,"params":3519,"Ġactually":3520,"Ġ\"/":3521,"Empty":3522,"Method":3523,"Ġident":3524,"unic":3525,"Ġmillion":3526,"Ġaff":3527,"style":3528,"Ġconc":3529,"ios":3530,"ignment":3531,"ULT":3532,"Pr":3533,"\";čĊ":3534,"Ġunderstand":3535,"uary":3536,"Ġhappen":3537,"Ġserver":3538,"ĠCo":3539,"SC":3540,"Ġles":3541,"Ġfiles":3542,"Grid":3543,"sql":3544,"Ġoften":3545,"Ġinfo":3546,"_tr":3547,"src":3548,"ony":3549,"Ġspace":3550,"umb":3551,"Ġpassword":3552,"Ġstore":3553,",ĊĊ":3554,"ĠWhat":3555,"ged":3556,"ĠFalse":3557,"Us":3558,"swer":3559,"_index":3560,"Ġformat":3561,"most":3562,"sm":3563,"New":3564,"Ġdetails":3565,"Ġprob":3566,"ĠAND":3567,"()čĊ":3568,"ilar":3569,"Ġ${":3570,"rypt":3571,".Collections":3572,"$this":3573,"ĠFree":3574,"_of":3575,"(false":3576,"dated":3577,"Ġ>>":3578,"Ġface":3579,"CTION":3580,"Ġsave":3581,"Ġtyp":3582,"dev":3583,"(\"#":3584,"AGE":3585,"container":3586,"edit":3587,"QL":3588,"Ġitems":3589,"Ġsocial":3590,"ien":3591,"ĠReact":3592,").ĊĊ":3593,"Ġmar":3594,"Ġredu":3595,"ĠRE":3596,".put":3597,"Ġmajor":3598,"Cell":3599,"next":3600,"Ġexpected":3601,"Ġyet":3602,"Ġindiv":3603,"tributes":3604,"atis":3605,"amed":3606,"Ġfood":3607,"Source":3608,"(string":3609,"Ġ+Ċ":3610,"ites":3611,"dr":3612,"Ġmembers":3613,"Ġcomb":3614,"items":3615,"ĠPer":3616,"TH":3617,"=True":3618,"Ġbar":3619,"_SE":3620,"comm":3621,"(w":3622,")ĊĊĊ":3623,"Ġsend":3624,"Ġinc":3625,"unsigned":3626,"FA":3627,"Ġparams":3628,"apping":3629,"ros":3630,"ugin":3631,"fa":3632,"Ġconnection":3633,"Ġ};ĊĊ":3634,"Ġbecome":3635,"Mode":3636,"Ġev":3637,"Ġdiff":3638,"ĠUnited":3639,"Height":3640,"fully":3641,"images":3642,"Ġmakes":3643,"Ġglobal":3644,"Ġcontact":3645,"':Ċ":3646,"Ġabs":3647,"Ð°Ð":3648,"float":3649,"Ġexcept":3650,"ĠPol":3651,"Child":3652,"typ":3653,"Ġcertain":3654,"iÃ³n":3655,"OUT":3656,"Ġimpro":3657,"iles":3658,"Ġ-->Ċ":3659,"ĠPart":3660,"values":3661,"oss":3662,"/**":3663,"ilit":3664,"ĠEvent":3665,"curity":3666,"ster":3667,"Ġcharacter":3668,"Ġnews":3669,"Ġ\",":3670,"Ġdevice":3671,"cel":3672,"login":3673,"heet":3674,"Default":3675,"@\"":3676,"ĉĠ":3677,"click":3678,"(value":3679,"ĠAb":3680,"Ġprevious":3681,"ERROR":3682,"ocal":3683,"Ġmaterial":3684,"Ġbelow":3685,"ĠChrist":3686,"Ġmedia":3687,"cover":3688,"ĠUI":3689,"Ġfail":3690,"Ġblack":3691,"Ġcomponent":3692,"ĠAmerican":3693,"Ġadded":3694,"Ġbuy":3695,"stit":3696,"Ġcame":3697,"Ġdelete":3698,"property":3699,"oding":3700,"Ġcard":3701,"rops":3702,"Ġhttps":3703,"Ġroot":3704,"Ġhandle":3705,"CC":3706,"Back":3707,"emplate":3708,"Ġgetting":3709,"_by":3710,"mail":3711,"_sh":3712,".assert":3713,"ĠDec":3714,"(true":3715,"Ġcomput":3716,"Ġclaim":3717,"'=>":3718,"ĠSub":3719,"Ġair":3720,"ops":3721,"nav":3722,"ements":3723,"(id":3724,"Ġenter":3725,"anged":3726,"End":3727,"Ġlocation":3728,"Ġnight":3729,"Ġdoing":3730,"ĠRed":3731,"lin":3732,"}ĊĊĊ":3733,"vider":3734,"Ġpick":3735,"Ġwatch":3736,"essages":3737,"Ġhuman":3738,"Ġdam":3739,"pend":3740,"dir":3741,"Ġtax":3742,"Ġgirl":3743,"reet":3744,"Ġbox":3745,"Ġstrong":3746,"(v":3747,"rel":3748,"Ġinterface":3749,"Ġmsg":3750,"fect":3751,"_at":3752,"Ġhouse":3753,"Ġtrack":3754,"');ĊĊ":3755,"je":3756,"ĠJohn":3757,"istr":3758,"(S":3759,"ube":3760,"Ġce":3761,"itted":3762,"VER":3763,"*)":3764,"parent":3765,"Ġapplication":3766,"any":3767,".swing":3768,"Ġpack":3769,"\\u":3770,"Ġpract":3771,"Ġsection":3772,"ctx":3773,"Ġunsigned":3774,".Point":3775,"ĠOne":3776,"Ä±":3777,"iple":3778,"aid":3779,"Ñĥ":3780,"Vector":3781,"byte":3782,"Ġwait":3783,"ĠÃł":3784,"Ã¥":3785,"Ġtogether":3786,"Ġthrows":3787,"FO":3788,"'))":3789,"host":3790,"ising":3791,".view":3792,"Ġterms":3793,"framework":3794,"-r":3795,"Ġapply":3796,"Ġsession":3797,"Options":3798,"uggest":3799,"Ġothers":3800,"witter":3801,"Ġfund":3802,"Init":3803,"__(":3804,"ensor":3805,"GET":3806,"Ġseveral":3807,"ii":3808,"[j":3809,"IO":3810,"Ġtemplate":3811,"Position":3812,"Ġecon":3813,"achine":3814,"Ġil":3815,".spring":3816,"main":3817,"elt":3818,"iment":3819,"Rec":3820,"mm":3821,"ĠUniversity":3822,"ursor":3823,"ĠĠĠĠĠĠĠĠĠĠĠĠĠĠĠĠĠĠĠĠ":3824,"GL":3825,"icture":3826,"ithub":3827,"cer":3828,"cast":3829,"From":3830,"ales":3831,"Ġsubject":3832,"password":3833,"ny":3834,"Ġesc":3835,".write":3836,"ï¼Į":3837,"What":3838,".H":3839,"Ġhistory":3840,"ĠFe":3841,"Ġindividual":3842,"unit":3843,"Ġ-->":3844,"Ġdu":3845,"IST":3846,"Ġusers":3847,"fs":3848,"false":3849,"unt":3850,"Title":3851,"Ġmot":3852,"Ġfuture":3853,"ached":3854,"Ġstarted":3855,"Ġmode":3856,"Ġ'<":3857,"_array":3858,"Ġax":3859,"'];Ċ":3860,"ires":3861,"There":3862,"ught":3863,"tml":3864,"posed":3865,"icult":3866,"Ġtook":3867,"Ġgames":3868,"Ġ}}":3869,"Ġ?>Ċ":3870,"Ġproducts":3871,"Is":3872,"Ġbad":3873,"ĠDes":3874,".path":3875,"'ĊĊ":3876,"ĠPost":3877,"avel":3878,"(:":3879,"Ġneeds":3880,"Ġknown":3881,"Fl":3882,"Ġexec":3883,"Ġseen":3884,"ume":3885,"Ġborder":3886,"Ġlive":3887,"temp":3888,"Per":3889,"Ġvariable":3890,"iet":3891,"ĠDef":3892,"Ġge":3893,"eme":3894,"_back":3895,"first":3896,"Ġprovided":3897,"////////////////////////////////":3898,"Ġfilename":3899,"Ġhope":3900,"uly":3901,"auto":3902,"find":3903,"_string":3904,"btn":3905,"itude":3906,"Attribute":3907,"Ġyoung":3908,".txt":3909,"Ġwebsite":3910,"ĠProp":3911,"Ġey":3912,">();Ċ":3913,"ional":3914,"ARR":3915,"ictionary":3916,"urther":3917,".</":3918,"ALL":3919,"Ġstudy":3920,"ili":3921,"Ġnetwork":3922,"yl":3923,"istance":3924,"OK":3925,"NU":3926,"rest":3927,"ĠST":3928,"icrosoft":3929,"Ġlimit":3930,"Ġcut":3931,"():Ċ":3932,"Ġcou":3933,"ogn":3934,"Ġsizeof":3935,"ival":3936,"Ġwent":3937,".z":3938,"Link":3939,"Ġfire":3940,"Ġacross":3941,"Ġcommunity":3942,"region":3943,"NE":3944,"Ref":3945,"Ġofficial":3946,"Ġvisit":3947,"olve":3948,"Ġreceived":3949,"Ġtoken":3950,"Ġmonths":3951,"Ġanim":3952,"Ġparticular":3953,"styles":3954,"ico":3955,"Ġess":3956,".Control":3957,"ĠÃ©":3958,"ball":3959,"Ġlearn":3960,"inding":3961,"Var":3962,"Ġdecl":3963,"(err":3964,"LECT":3965,"One":3966,"pha":3967,"Ġ~":3968,"fort":3969,"asure":3970,"Ġmind":3971,"ĠEnd":3972,"Check":3973,"Ġquick":3974,"\"),":3975,"AND":3976,"utions":3977,"Base":3978,"________":3979,"Ġcomment":3980,"INE":3981,"âĢĻve":3982,"But":3983,"ĠEl":3984,"ĠUs":3985,"Ġadmin":3986,"mark":3987,"ĠName":3988,"`Ċ":3989,"ĠType":3990,"amic":3991,"pc":3992,"loor":3993,"FT":3994,"Ġopp":3995,"cket":3996,")->":3997,"tx":3998,"Ġpur":3999,"uel":4000,"ymbol":4001,"uation":4002,"anger":4003,"Ġbackground":4004,"ecess":4005,"efined":4006,"........":4007,"Ġdescription":4008,"Ġrepresent":4009,"\"));Ċ":4010,"pression":4011,"rowser":4012,"Ġseries":4013,"wards":4014,"($_":4015,"aise":4016,"Ġhot":4017,"acity":4018,"ries":4019,"actions":4020,"Create":4021,"adio":4022,"amples":4023,"Ġoriginal":4024,"ensive":4025,"font":4026,"stream":4027,"ï»¿using":4028,".springframework":4029,"server":4030,"Ġbill":4031,"ACK":4032,"ilename":4033,"Ġframe":4034,"Ġ=Ċ":4035,"Edit":4036,"adius":4037,"Ġdraw":4038,"anks":4039,"Ġdeter":4040,"Ġcomes":4041,"_int":4042,"Ġforeach":4043,"angle":4044,"Ġelect":4045,"pected":4046,"Header":4047,"istration":4048,"False":4049,"ĠGame":4050,"Ġfilter":4051,"Activity":4052,"Ġlarg":4053,"inition":4054,"Ġ\"<":4055,"ised":4056,"Ġremove":4057,"ĠTrans":4058,"met":4059,"see":4060,"Format":4061,"Command":4062,"ĠEX":4063,"None":4064,"Ġfront":4065,"ASE":4066,"ĠRec":4067,"oundation":4068,"Ġvo":4069,"=\\\"":4070,"(*":4071,"Change":4072,".Write":4073,"group":4074,"ients":4075,"uy":4076,"****************************************************************":4077,"Ġdig":4078,"hr":4079,"(-":4080,"Ġgen":4081,"number":4082,"vec":4083,"urope":4084,"entry":4085,"LL":4086,"Ġste":4087,"Valid":4088,"'],":4089,"_param":4090,"Ġselected":4091,"Ġaccording":4092,"ĠDis":4093,"Ġutil":4094,"Buffer":4095,"_error":4096,"Ġassoci":4097,"_SIZE":4098,"Ġwor":4099,"Ġprintf":4100,"rag":4101,"Âł":4102,"DD":4103,"ĠVal":4104,"Ġactiv":4105,"Eng":4106,"etime":4107,"Ġvirtual":4108,"aign":4109,"aur":4110,"ĠPres":4111,"ĠException":4112,"Ġanything":4113,"ĠOff":4114,"Ġhours":4115,"Ġwar":4116,"Args":4117,"aging":4118,"Ġmodels":4119,"ĠTime":4120,"Ob":4121,"ams":4122,"joy":4123,"Ġearly":4124,".read":4125,"Ġcenter":4126,"ĠInitial":4127,"Ġlanguage":4128,"length":4129,"xy":4130,"Ġsn":4131,"Ġinf":4132,"Post":4133,"Ġago":4134,"Ġeasy":4135,"_code":4136,"ĠANY":4137,"_ch":4138,"Ġdownload":4139,"(T":4140,"aved":4141,"âĢĵ":4142,"Ġstudents":4143,"Ġfig":4144,"light":4145,"xx":4146,"Ġbuffer":4147,"ĠDep":4148,"ĠMath":4149,"ITH":4150,"Ġvari":4151,"Ġdue":4152,"Factory":4153,"Ġpor":4154,"Ġep":4155,"otype":4156,"Ġcannot":4157,"Ġwhite":4158,"<int":4159,"tern":4160,"Ġregister":4161,"Ġpred":4162,"clus":4163,"_date":4164,"Ġ/**":4165,"Ġauth":4166,"Ġ[]Ċ":4167,"Ġperiod":4168,"nown":4169,"Ġvot":4170,"Ġscreen":4171,"'d":4172,"Types":4173,"Ġtmp":4174,"ÐµÐ":4175,"ural":4176,"Ġbenef":4177,"_y":4178,"Ġnet":4179,"ĠStates":4180,"']['":4181,"ĠNe":4182,"ĠNOT":4183,"Ġneg":4184,"Ġcommon":4185,"scope":4186,"Ġcred":4187,"ges":4188,"_TYPE":4189,"Ġsuggest":4190,"oom":4191,".ĊĊĊ":4192,"Ġaccept":4193,"Ġrandom":4194,"erm":4195,"ĠVector":4196,"with":4197,"TER":4198,"(str":4199,"Ġrespons":4200,"Ġhit":4201,".Set":4202,"grid":4203,"ria":4204,"Ġclick":4205,"undle":4206,"Case":4207,"insert":4208,"Utils":4209,"Ġ\"\"\"":4210,"Ġimplement":4211,"atal":4212,"tempt":4213,"template":4214,"ocr":4215,"returns":4216,"Ġplayers":4217,"users":4218,"edef":4219,"ĠThese":4220,"Ġamong":4221,"Ġdeb":4222,"ha":4223,".getElement":4224,"Ġcirc":4225,"Ġanswer":4226,"Ġwalk":4227,"Ġtreat":4228,"ĠGe":4229,"ĠCreate":4230,"Ġage":4231,"Ġreq":4232,"OST":4233,"angular":4234,"Ñı":4235,"Ġfive":4236,"Ġdistributed":4237,"Ġfriend":4238,"TP":4239,"Ġclean":4240,"ows":4241,".Controls":4242,"dis":4243,"Ġwords":4244,".io":4245,"zy":4246,"Ġheader":4247,"ĠCheck":4248,"âĢĻm":4249,"just":4250,"holder":4251,"=\"<?":4252,"ĠGNU":4253,"ĠCol":4254,"imest":4255,"entic":4256,"{ĊĊ":4257,"Ġtre":4258,"last":4259,"la":4260,"ĠYork":4261,"Lo":4262,"Ġdiscuss":4263,"ĠGod":4264,"Ġissue":4265,"rew":4266,"Window":4267,"Ġland":4268,"Ġstream":4269,"ĠPar":4270,"Ġquality":4271,"Par":4272,"_num":4273,"Ġsal":4274,"elves":4275,"ORD":4276,"(user":4277,"Ġworks":4278,"Ġhalf":4279,"enses":4280,"vas":4281,"Ġpolice":4282,"(\"/":4283,"ua":4284,"Ġsimple":4285,"Address":4286,"Ġempty":4287,"esh":4288,"Update":4289,"ĠCreated":4290,"('.":4291,").Ċ":4292,"ĠĠĠĠĠĠĠĠĠĠĠĠĠĠĠĠĠĠ":4293,"Ġagre":4294,"ĠFROM":4295,"Ġcook":4296,"Ġeverything":4297,"ilities":4298,".status":4299,"Ġrelations":4300,"extern":4301,"Ġnothing":4302,"Ġrunning":4303,"ĉvoid":4304,"RI":4305,"_a":4306,"_CON":4307,"por":4308,".sub":4309,"require":4310,"ĠCity":4311,"ĠWest":4312,"Ġmor":4313,"store":4314,"Equals":4315,"oder":4316,"Ġna":4317,"Ġ[[":4318,"Ġ('":4319,"ĠDon":4320,"ERS":4321,"/p":4322,".json":4323,"abor":4324,"Ġsomeone":4325,"_text":4326,".css":4327,".Tab":4328,"ĠSome":4329,"ato":4330,"double":4331,"Ġshare":4332,"(void":4333,"_dir":4334,"Ġur":4335,"Stack":4336,"ĠWorld":4337,".X":4338,"stract":4339,"How":4340,".Generic":4341,"icles":4342,"Ġentry":4343,"Ġchanges":4344,"Ġpersonal":4345,"(A":4346,"Ġoffset":4347,"_ptr":4348,"Ġpie":4349,"ĠJan":4350,"-group":4351,"module":4352,"Items":4353,"ĠHowever":4354,"verage":4355,".Font":4356,"Ġevents":4357,".min":4358,"Ġinvol":4359,"za":4360,"Ġwhole":4361,"Ġneeded":4362,"Ġlikely":4363,"rief":4364,"ORM":4365,"version":4366,"Ġfight":4367,"Ġein":4368,"Frame":4369,"gen":4370,"ĠOut":4371,"avigation":4372,"Length":4373,"illed":4374,"quence":4375,"Ġ!==":4376,"ĠSoftware":4377,"Ġwriting":4378,"Ġrate":4379,"'],Ċ":4380,"Panel":4381,"inner":4382,"Ġ[\"":4383,"Ġtw":4384,"cd":4385,"Ġ;Ċ":4386,"_state":4387,"ĠSm":4388,"ĠMark":4389,"))ĊĊ":4390,"prot":4391,"ĠMr":4392,"method":4393,"ustomer":4394,"Icon":4395,"Ġcorrect":4396,"(object":4397,"ĠMore":4398,"Ġfall":4399,"Ġvol":4400,"Ġdevelopment":4401,"ently":4402,"Ġsi":4403,"medi":4404,"ving":4405,"PP":4406,"aker":4407,"Ġindu":4408,"Ġelif":4409,"Ġpret":4410,"Ġbelieve":4411,"ns":4412,"omet":4413,"ĠIntern":4414,"Rect":4415,"So":4416,".error":4417,"Read":4418,"Ġfeatures":4419,"Ġminutes":4420,"---":4421,"asing":4422,"cret":4423,"\">čĊ":4424,".annot":4425,"Ġcollection":4426,"'.":4427,"Ġsimilar":4428,"Ġtaken":4429,"(\"%":4430,"Order":4431,"']Ċ":4432,"-md":4433,"ĠTH":4434,"aced":4435,"Ġisn":4436,"/j":4437,"Ġson":4438,"graph":4439,"ĠInteger":4440,"Ġnecess":4441,"reen":4442,"Ġum":4443,"Ġ\\<":4444,"Ġmoment":4445,"Ġbring":4446,"Ġindic":4447,"ysis":4448,"Level":4449,"verse":4450,"urrenc":4451,"_test":4452,"Ġentire":4453,"Down":4454,"Ġ}ĊĊĊ":4455,"(result":4456,"ĠRead":4457,"Ã¨":4458,"Mod":4459,"Ġtrying":4460,"\"),Ċ":4461,"Ġmember":4462,"ĠCor":4463,"ODO":4464,"-control":4465,"untime":4466,"ĠSim":4467,"Dialog":4468,"plot":4469,"_on":4470,"Ġphys":4471,"}/":4472,"Ġnamespace":4473,"ĉčĊ":4474,"acc":4475,"Player":4476,"ARE":4477,"Ġfoot":4478,"Ġboard":4479,"part":4480,"Ġsus":4481,"wise":4482,"ĠMc":4483,"Ġpush":4484,"ATA":4485,"Ġplease":4486,"ried":4487,"weet":4488,"bit":4489,"ided":4490,"VE":4491,"ĠSw":4492,"UB":4493,"Ġtypes":4494,"edia":4495,"Ġclos":4496,"acebook":4497,"When":4498,"Ġedit":4499,"igger":4500,"Ġenerg":4501,"Container":4502,"Ġphot":4503,"ĠCount":4504,"ĠEurope":4505,".Is":4506,"ĠRuss":4507,"peed":4508,"ĠStr":4509,"Ġpy":4510,"Ġcult":4511,"Ġdefined":4512,"ccount":4513,"Ġobt":4514,".Location":4515,"Ġthread":4516,"ille":4517,"Ġinstead":4518,"strong":4519,"ĠSec":4520,"URE":4521,"Ġidea":4522,".se":4523,"emy":4524,"selected":4525,"Connection":4526,"acing":4527,"thread":4528,".next":4529,"Ġcoll":4530,"Ġfilm":4531,"istic":4532,"Ġcompet":4533,"Ġconn":4534,"though":4535,"Ġcompan":4536,"ocket":4537,"Ġteach":4538,"=(":4539,"Ġphone":4540,"Ġactive":4541,"delete":4542,"tries":4543,"Ġmo":4544,"Ġdeath":4545,"});ĊĊ":4546,"ocol":4547,"Widget":4548,"Ġarticle":4549,"rodu":4550,"andid":4551,"Ñĭ":4552,"ĠCr":4553,"ka":4554,"():":4555,"lood":4556,"ĉĉĉĊ":4557,"Ġalmost":4558,"Ġsell":4559,"ervlet":4560,"rip":4561,"Unit":4562,"Ġapplic":4563,"Ġconnect":4564,"Ġfeature":4565,"Ġvia":4566,"'),":4567,"Ġlim":4568,"ĠĠĠĠĠĠĠĠĠĠĠĠĠĠĠĠĠĠĠĠĠĠĠĠĠĠĠĠĠĠĠĠĠĠĠĠĠĠĠĠĠĠĠĠĠĠĠ":4569,"ĠGu":4570,"Engine":4571,"Ġens":4572,"Ġenvironment":4573,"block":4574,"HERE":4575,"NULL":4576,"gy":4577,"tag":4578,")).":4579,"exp":4580,"Ġcompl":4581,"Ġinstall":4582,"Ġcomplete":4583,"queue":4584,"atural":4585,"Ġgeneral":4586,"thon":4587,"Ġasked":4588,"ores":4589,"(res":4590,"Ġreserved":4591,"SP":4592,"ĠâĢ¦":4593,"ÅĤ":4594,"Ġsignific":4595,"Off":4596,"ĠĠĠĠĠĠĠĠĠĠĠĠĠĠĠĠĠĠĠĠĠĠĠĠĠĠĠĠĠ":4597,"ĠAg":4598,"ĠJust":4599,"ĠError":4600,"Ġinfl":4601,"adata":4602,"Ġicon":4603,"asks":4604,"''":4605,"_LO":4606,"?.":4607,"account":4608,"Ġ(*":4609,"')ĊĊ":4610,"rap":4611,"_var":4612,"ĠFOR":4613,"Ġparty":4614,"ĠYour":4615,"cat":4616,"stry":4617,".new":4618,"boot":4619,"ĠNov":4620,"Ġvector":4621,"Ġnormal":4622,"Ġfurther":4623,"Repository":4624,"Ġdatabase":4625,"attle":4626,"Ġmusic":4627,"Ġspeed":4628,"Ġdoc":4629,"process":4630,"IGHT":4631,".parse":4632,"Ġtaking":4633,"Ġviol":4634,"ceed":4635,"ĠAfter":4636,"Ġforward":4637,"Ġcrit":4638,"\"/>Ċ":4639,"rot":4640,"Ġfailed":4641,"efore":4642,"Ġconcern":4643,"oe":4644,"ba":4645,"Ġsender":4646,"Ġterm":4647,"has":4648,"=\"#":4649,"Ġpotential":4650,"Num":4651,"Ġpublished":4652,".close":4653,"ĠImage":4654,"straint":4655,"UD":4656,"ĠOb":4657,"Ġprobably":4658,"lim":4659,"\":Ċ":4660,"olume":4661,"Ġconsum":4662,"ague":4663,"ensions":4664,"Ġinvestig":4665,"-year":4666,"');":4667,"-sm":4668,"Ġenjoy":4669,"orig":4670,"ering":4671,"cp":4672,"leased":4673,"plements":4674,"Ġreturns":4675,"pat":4676,"BO":4677,"ĠHouse":4678,".Label":4679,"Ġweight":4680,"ighb":4681,"Ġconditions":4682,"Ġexception":4683,"description":4684,"Ġtrad":4685,"-to":4686,"Ġ{}":4687,"Ġmodule":4688,"END":4689,".ap":4690,".props":4691,"Ġconstructor":4692,"aves":4693,"Ġfavor":4694,"ĠNow":4695,";i":4696,"ĠMain":4697,"_k":4698,"eries":4699,"âĢĻll":4700,"transform":4701,"imestamp":4702,"Pre":4703,"Ġmer":4704,".res":4705,"stant":4706,"Location":4707,"_NAME":4708,"Ġloss":4709,"ĠĊĊ":4710,"net":4711,"Ġengine":4712,"Block":4713,"Ġissues":4714,"Ġparse":4715,"ĠBar":4716,"Ġstay":4717,"ĠJSON":4718,"Ġdom":4719,"airs":4720,"wner":4721,"Ġlower":4722,"\",čĊ":4723,"ĠDem":4724,"ufact":4725,"Ġps":4726,"Ġperfect":4727,"RL":4728,"Ġeduc":4729,"ls":4730,"emory":4731,"ARRANT":4732,"uge":4733,"Ġexact":4734,".key":4735,"alled":4736,"ech":4737,"ief":4738,"\\/":4739,"oke":4740,"Ġformer":4741,"alloc":4742,"Ġsix":4743,"ida":4744,"Ġmargin":4745,"Ġheart":4746,"ald":4747,"pack":4748,".getElementById":4749,"ĠWARRANT":4750,"Ġrather":4751,"Ġbuilding":4752,"erman":4753,"lice":4754,"Ġquestions":4755,"izes":4756,"lege":4757,"irectory":4758,"Ġje":4759,"Ġcas":4760,"props":4761,"utf":4762,"Ġsecurity":4763,"Ġhowever":4764,"weight":4765,"Ġinside":4766,"Ġpresident":4767,"Char":4768,"ĠWITH":4769,".map":4770,"Ġgraph":4771,"Ġtag":4772,"_status":4773,"Ġattempt":4774,"opp":4775,"uses":4776,"ĉconst":4777,"Ġround":4778,",$":4779,"Ġfriends":4780,"Email":4781,"?>":4782,"Resource":4783,"KEY":4784,"osp":4785,".query":4786,"ĠNorth":4787,"ables":4788,"istrib":4789,"_class":4790,"ello":4791,"That":4792,"Ðº":4793,"pecially":4794,"ĠPresident":4795,"Ġcampaign":4796,"Ġalt":4797,"area":4798,"Ġchall":4799,"Ġopport":4800,".Con":4801,"Ġenergy":4802,"like":4803,".string":4804,"ington":4805,")*":4806,"yy":4807,"Ġprofession":4808,"irth":4809,"Ġseg":4810,"æľ":4811,"Ġhor":4812,"iers":4813,"can":4814,"Ġbehind":4815,"Product":4816,"fg":4817,"ĠSk":4818,".jpg":4819,"?:":4820,"];ĊĊ":4821,"Ġcallback":4822,"ĠHttp":4823,"ÑĮ":4824,"long":4825,"MS":4826,"ATH":4827,"Ġraise":4828,"Ġwanted":4829,"rown":4830,"utor":4831,"lt":4832,"]=":4833,"eline":4834,"MA":4835,"Ġsepar":4836,"cs":4837,"semb":4838,"Dis":4839,"bserv":4840,"ĠWill":4841,"Ġpolicy":4842,"Ġthird":4843,"phone":4844,"Ġbed":4845,"/g":4846,".__":4847,"ĠInc":4848,"izing":4849,".remove":4850,"instance":4851,".type":4852,"Ġserv":4853,"Each":4854,"Ġhar":4855,"ĠMessage":4856,"(key":4857,"SELECT":4858,"Pos":4859,"));čĊ":4860,"Ġrecomm":4861,"Ġtraining":4862,"ĠEnt":4863,"ĠChar":4864,"icht":4865,"(file":4866,"Ġprior":4867,"Game":4868,"Ġexit":4869,"Params":4870,".core":4871,"PC":4872,"nes":4873,"anced":4874,"(request":4875,"Password":4876,"}>Ċ":4877,"Ġmag":4878,"Ġrelease":4879,"Ġshall":4880,"udent":4881,"ĠSouth":4882,"ando":4883,":'":4884,".TabIndex":4885,"sk":4886,"anner":4887,"isset":4888,"Ġoutside":4889,"ledge":4890,"Ġå":4891,"ĠRob":4892,"Ġimm":4893,"!Ċ":4894,"ĠWeb":4895,"Des":4896,"BC":4897,"ancial":4898,"Route":4899,"Dec":4900,"ferences":4901,"Ġpurch":4902,"ĠModel":4903,"ctor":4904,"gn":4905,"_start":4906,"_un":4907,".*":4908,"ises":4909,"Ġground":4910,"Ġunique":4911,"Ġbeaut":4912,"{\"":4913,"Ġpour":4914,"ĠOct":4915,"Ġtree":4916,"sets":4917,"_res":4918,"')->":4919,"_reg":4920,"(\"\\":4921,"Ġbyte":4922,"Bl":4923,"Ġdating":4924,"Ġmatter":4925,"ĠRem":4926,"Ġ'../":4927,"ĠAug":4928,"ĠLa":4929,"Ġ$(":4930,"ournal":4931,"iam":4932,"Ġshows":4933,"write":4934,"Ġball":4935,"Ġsimply":4936,"Ġfast":4937,"Ġmemory":4938,"ASS":4939,"ĠOf":4940,"oved":4941,"ante":4942,"aul":4943,"istry":4944,")));Ċ":4945,"Ġfit":4946,"<string":4947,"Ġpolitical":4948,"ancel":4949,"_.":4950,"card":4951,".current":4952,"och":4953,"_image":4954,"\\t":4955,"#Ċ":4956,"(L":4957,"Ġindustry":4958,"coming":4959,"Ġextra":4960,"Ġreported":4961,".start":4962,"Ġresources":4963,"Ġimg":4964,"flow":4965,"_EX":4966,"(null":4967,"ĠPre":4968,"Ġwrong":4969,"interface":4970,"Parameter":4971,"ners":4972,"á»":4973,"ture":4974,"ersist":4975,"ountry":4976,"Ġseems":4977,"alance":4978,"dest":4979,"ĉString":4980,"Ġmaint":4981,"Ġunit":4982,"acters":4983,"ĠTR":4984,"iful":4985,"exports":4986,"project":4987,"Application":4988,"legate":4989,"Ġtakes":4990,"term":4991,"Ġetc":4992,"uster":4993,"Ġappear":4994,"address":4995,"Ġfem":4996,"hs":4997,"Ġhom":4998,",-":4999,"Ġdifficult":5000,"Ġcoming":5001,"Open":5002,"Ġsettings":5003,"ĠWar":5004,"ĠThen":5005,"Ġautom":5006,"ĠFoundation":5007,"Ġquite":5008,"Description":5009,"Ġblog":5010,"iqu":5011,"PS":5012,"_field":5013,"Json":5014,"SSION":5015,"ĠSch":5016,"ĠLO":5017,"Ġdescri":5018,"Ġeveryone":5019,"Ġpretty":5020,"Ġlonger":5021,"Ġmenu":5022,"Ġcurrently":5023,"sec":5024,"Ġrelationship":5025,"################################":5026,"ĠMap":5027,"aset":5028,"Ġparameters":5029,"Ġcrush":5030,"\"čĊ":5031,"ILITY":5032,"igration":5033,"Ġcout":5034,"total":5035,"Ġnames":5036,"ndef":5037,"\");":5038,"riend":5039,"ynamic":5040,"Ġeffort":5041,"Ġactual":5042,"Ġfields":5043,"OUN":5044,"ters":5045,"Ġfix":5046,"_model":5047,"Ġcases":5048,"CA":5049,"My":5050,"Interface":5051,"ĠSE":5052,"]]":5053,"alle":5054,"ĠNational":5055,"ĠArrayList":5056,"inline":5057,".V":5058,"ara":5059,"refix":5060,"asc":5061,"Reader":5062,"ĠÐ¿":5063,"astic":5064,"(()":5065,"Cl":5066,".annotation":5067,"Ġperformance":5068,"aily":5069,".toString":5070,".net":5071,"views":5072,".end":5073,"ayers":5074,"late":5075,"ĠApr":5076,"ederal":5077,"'])":5078,".body":5079,"Ġhigher":5080,"_fl":5081,"cr":5082,"alert":5083,"_node":5084,"ĠGoogle":5085,"Ġitself":5086,"Auth":5087,"urrency":5088,"Ġsignificant":5089,"append":5090,"Ġrespect":5091,"strap":5092,"Ġuna":5093,"riteria":5094,"PORT":5095,".apache":5096,"Output":5097,"Ġprogress":5098,"Ġmid":5099,"ĠMicrosoft":5100,"Ġresource":5101,"ablish":5102,"Ġdim":5103,".load":5104,".App":5105,"Ġdirection":5106,"Ġadditional":5107,"ĠĠĠĠĠĠĠĠĠĠĠĠĠĠĠĠĠĠĠĠĠĠĠĠ":5108,"Ġnumbers":5109,"Ġcompanies":5110,".Th":5111,"Ġsound":5112,"username":5113,"Ġstatement":5114,"Ġalert":5115,"Ġcontract":5116,"home":5117,"_length":5118,".Component":5119,"ev":5120,".Ex":5121,"ï¼ļ":5122,"\";":5123,"ĠHigh":5124,"Ġ)ĊĊ":5125,"ĠPoint":5126,"oph":5127,"Ġlines":5128,"->_":5129,"\")ĊĊ":5130,"ox":5131,"application":5132,"Ġ]Ċ":5133,"ĊĊĊĊĊĊ":5134,"Ġsoon":5135,"ctions":5136,"inger":5137,"Ġjoin":5138,"ĠPe":5139,"Ġë":5140,"Ġlas":5141,".E":5142,"css":5143,"/or":5144,"ĠStart":5145,"ĠTO":5146,"Ġsubs":5147,"conn":5148,"components":5149,"DEBUG":5150,"quare":5151,"Function":5152,"endar":5153,".index":5154,"Ġfill":5155,"ÄĻ":5156,"Ġchoose":5157,"how":5158,"ĠAmerica":5159,"assets":5160,"------------":5161,"ĠValue":5162,"Ġoffice":5163,"Ġveh":5164,"Ġtransform":5165,"ĠArt":5166,"Ġinde":5167,"Ġfn":5168,"Ġimplements":5169,"ango":5170,"plete":5171,"+\"":5172,"tmp":5173,"amily":5174,"Ġhash":5175,"missions":5176,"EST":5177,"gt":5178,"Provider":5179,"ĠĠĠĠĠĠĠĠĠĠĠĠĠĠĠĠĠĠĠĠĠĠ":5180,"Ġflag":5181,"Ġparticip":5182,"den":5183,"ĠReturns":5184,"Ġnote":5185,"Ã¼r":5186,"pm":5187,"ideos":5188,"Ġspecified":5189,"ĠEN":5190,"ester":5191,"olid":5192,"Ġupon":5193,"(std":5194,"ĉv":5195,"Ġ'\\":5196,"uz":5197,"Ġvert":5198,"Ġvict":5199,"ĉself":5200,"Ġ\"$":5201,".k":5202,"Ġgroups":5203,"github":5204,"lang":5205,"Ġmut":5206,"TO":5207,"Ġve":5208,"ĠPlease":5209,";ĊĊĊ":5210,"access":5211,"Ġ{\"":5212,"rea":5213,"Ġrisk":5214,"icker":5215,"oggle":5216,"ĉwhile":5217,"ANG":5218,".send":5219,"Ġwoman":5220,"Ġgets":5221,"Ġign":5222,"ĠId":5223,"_log":5224,"ONE":5225,"Ġevid":5226,"ĠHar":5227,"_sub":5228,"Ġendl":5229,"Ġincluded":5230,"());ĊĊ":5231,"ĠAp":5232,"igr":5233,"Ġsem":5234,"ĠBlack":5235,"doc":5236,"_table":5237,"ĠĠĠĠĠĠĠĠĠĠĠĠĠĠĠĠĠĠĠĠĠĠĠĠĠĠĠĠĠĠĠĠĠĠĠĠĠĠĠĠĠĠĠĠĠĠĠĠĠĠĠĠĠĠĠĠĠĠĠĠĠĠĠĠ":5238,"-up":5239,"Ġcause":5240,"Ġ..":5241,"Ġvan":5242,"_dict":5243,"Ġfocus":5244,"IND":5245,"CESS":5246,".Log":5247,"Ġmultiple":5248,"ido":5249,"Ġregard":5250,"-M":5251,"andler":5252,"ourse":5253,"Ġdeg":5254,".U":5255,"Ġaddition":5256,"Ġvarious":5257,"Ġreceive":5258,"ÐµÐ½":5259,"ĠHT":5260,"Obj":5261,"DF":5262,"Ġincrease":5263,"ĠOpen":5264,"];":5265,"Ġcommit":5266,"?Ċ":5267,"ategories":5268,"atory":5269,"ship":5270,"ĠMich":5271,"Ġhtml":5272,"romise":5273,"Ġleave":5274,"Ġstrateg":5275,"aven":5276,"ĠConsole":5277,"known":5278,"-n":5279,"_LE":5280,".component":5281,"Ġbre":5282,"Session":5283,"iance":5284,"Ġalign":5285,"typedef":5286,"_result":5287,"ĠWHERE":5288,".split":5289,"Ġreading":5290,"FAULT":5291,"Ġclo":5292,"Ġnotice":5293,"_pr":5294,"arter":5295,"Ġlock":5296,"Ġstandard":5297,"etic":5298,"ellow":5299,"Ġpadding":5300,"ĠHis":5301,"Ġstates":5302,"_cast":5303,"(P":5304,"aa":5305,"Ġinternal":5306,"ean":5307,"ĠPRO":5308,"ĠKey":5309,"Ġespecially":5310,"ming":5311,"Ġcross":5312,"Ġnational":5313,"_object":5314,"filter":5315,"Ġscript":5316,".update":5317,"_i":5318,"ĠAssert":5319,"/core":5320,"%%%%":5321,"Ġproblems":5322,"istor":5323,"Ġ.=":5324,"Ġarch":5325,"Ġwritten":5326,"Ġmilit":5327,"MENT":5328,".ch":5329,"cape":5330,"ĠMus":5331,"_config":5332,"ĠAPI":5333,"foot":5334,"Ġimages":5335,"endl":5336,".In":5337,"First":5338,"Ġplatform":5339,".prot":5340,"Option":5341,"ste":5342,"ĠTODO":5343,"Ġforce":5344,".cont":5345,"ĉecho":5346,"ĠDav":5347,"Ptr":5348,"(B":5349,"RT":5350,"ĠBase":5351,"]['":5352,"Ġannounc":5353,"console":5354,"ĠPy":5355,"ds":5356,".as":5357,"Ġprevent":5358,"apan":5359,"Ġ{'":5360,"}</":5361,"ĠService":5362,"ĠSen":5363,"ador":5364,"profile":5365,"Top":5366,"Ġiter":5367,"po":5368,"IES":5369,"JSON":5370,"IE":5371,"iant":5372,"ãĢģ":5373,"_j":5374,"ĠSept":5375,"_map":5376,"bum":5377,"(context":5378,"ĠHome":5379,"ians":5380,"GB":5381,"Ġliving":5382,"Ġpattern":5383,"(input":5384,"icient":5385,"Core":5386,"Ġentity":5387,"Ġinteg":5388,"Changed":5389,"Ġuseful":5390,".info":5391,"Ġtool":5392,"(item":5393,"Ġok":5394,"Ġfeed":5395,"IX":5396,"Ã©s":5397,"ĠNews":5398,"remove":5399,"erry":5400,"ĉĉĉĉĉĉĉĉĉ":5401,"ipment":5402,"ares":5403,"Do":5404,"Current":5405,".content":5406,".Group":5407,"ustral":5408,"ĠÑģ":5409,"})":5410,"Ġpopular":5411,"Ġstre":5412,"Ġmethods":5413,"_ERROR":5414,"Left":5415,"cal":5416,"bsp":5417,".ToString":5418,"Ġdir":5419,"Ġallowed":5420,"Ġimpact":5421,"\")]Ċ":5422,".config":5423,"Ġelements":5424,"Ġprote":5425,"Ġtrain":5426,".tr":5427,"rs":5428,"ĠRepublic":5429,"ĠTask":5430,"aries":5431,"(D":5432,"(get":5433,"âĢ¦ĊĊ":5434,"Ġrelated":5435,"Ġvers":5436,"Ġsil":5437,"Ġ\"\";Ċ":5438,"Ġcmd":5439,"Ġtechnology":5440,".width":5441,"Float":5442,"ĠUse":5443,"Body":5444,"should":5445,".join":5446,"Font":5447,"llum":5448,"ycle":5449,"ĠBrit":5450,"Ġmit":5451,"Ġscale":5452,"Ġ(_":5453,"ernel":5454,"\"))Ċ":5455,"Ġscore":5456,"/v":5457,"Ġstudent":5458,"UC":5459,".show":5460,"Ġaverage":5461,"Enabled":5462,"(ex":5463,"common":5464,"imation":5465,":@\"":5466,"chie":5467,"Ġ...ĊĊ":5468,"river":5469,"ĠMarch":5470,"category":5471,"fin":5472,"Ġcourt":5473,"Ð²":5474,"Server":5475,"Ġcontainer":5476,"-st":5477,"_for":5478,"Ġparts":5479,"Ġdecision":5480,"obs":5481,"oub":5482,"mitted":5483,"Ġ$('#":5484,"Ġsaw":5485,"Ġapproach":5486,"ICE":5487,"Ġsaying":5488,"Ġanyone":5489,"meta":5490,"SD":5491,"Ġsong":5492,"display":5493,"Oper":5494,"outes":5495,"Ġchannel":5496,"Ġchanged":5497,"Ãª":5498,"Ġfinally":5499,"_number":5500,"Please":5501,"à¤":5502,"oring":5503,"-re":5504,"Ġkill":5505,"Ġdrug":5506,"window":5507,"Ġconvert":5508,"ombre":5509,"Ġways":5510,"Helper":5511,"ĠFirst":5512,"(__":5513,"urity":5514,"ĠWindows":5515,"ees":5516,"Ġmat":5517,"rapper":5518,"Ġplus":5519,"anges":5520,"\"].":5521,"azon":5522,"/t":5523,"lat":5524,"aste":5525,"Ġprofile":5526,"Ġready":5527,"#ifndef":5528,"rote":5529,"Ġsense":5530,"Gener":5531,"ĠConfig":5532,"omy":5533,"ĠJune":5534,"Ġlatest":5535,"Ġsaf":5536,"Ġregion":5537,"Ġdeep":5538,"witch":5539,"ĠPark":5540,"}`":5541,"ĠFrom":5542,"II":5543,"Ġcv":5544,"Ġreach":5545,"Ġcounter":5546,"ĠWork":5547,"ĠURL":5548,"ĠUpdate":5549,"',čĊ":5550,"Ġimmedi":5551,"close":5552,"ados":5553,"ferred":5554,"Ġweeks":5555,"urg":5556,"Ġdamage":5557,"Ġlost":5558,"ani":5559,"_lo":5560,"Ġhimself":5561,"Ġdog":5562,")]Ċ":5563,"ï¿":5564,"pir":5565,"tt":5566,"Ġpaper":5567,"Ġthems":5568,"second":5569,"Ġstaff":5570,"ĠInput":5571,"\"+":5572,"ĠFacebook":5573,"Ġalloc":5574,"Ġsched":5575,"ACE":5576,"Ġthemselves":5577,"ĠComponent":5578,"Ġdriver":5579,"ja":5580,"(path":5581,"Ġcategory":5582,"alls":5583,"pu":5584,"lluminate":5585,"ĠAction":5586,".button":5587,"ĠGL":5588,"istics":5589,"Ġoil":5590,"Ġstock":5591,">'":5592,"Ġdead":5593,"VAL":5594,"QUE":5595,"************************************************************************":5596,"Ġcharg":5597,"Return":5598,"Ġful":5599,"dom":5600,"Ġrules":5601,"Ġmodify":5602,"Ġeval":5603,"ham":5604,"atement":5605,"\\<":5606,"ula":5607,"=False":5608,"RA":5609,"Ġcontains":5610,"Ġstack":5611,"mar":5612,"Ġ{}Ċ":5613,"Ġundefined":5614,"Ass":5615,"ĠChina":5616,"vey":5617,"*Ċ":5618,"Ġplaying":5619,")/":5620,"actor":5621,"Ġbottom":5622,"lier":5623,"ĠNumber":5624,"Ġcouple":5625,"DC":5626,"ĠSO":5627,"gor":5628,".setText":5629,"success":5630,"command":5631,"Filter":5632,"ĠOur":5633,"_item":5634,"Ġctx":5635,"Ġroad":5636,"Version":5637,"case":5638,"urt":5639,"avior":5640,"ych":5641,"sembly":5642,"ĠProduct":5643,"Ġheld":5644,"afe":5645,"Ġincludes":5646,"<quote":5647,"Ġavoid":5648,"ĠFin":5649,"ĠMod":5650,"Ġtab":5651,"ano":5652,"Ã±":5653,"ipping":5654,"-e":5655,"Ġinsert":5656,"target":5657,"chan":5658,".Model":5659,"IME":5660,"\\Ċ":5661,"Ġmachine":5662,"avy":5663,"ĠNO":5664,"ĠInter":5665,"Ġoperation":5666,"modal":5667,"Tag":5668,"]:":5669,"Ġproduction":5670,"Ġareas":5671,"Ġren":5672,"_from":5673,"nbsp":5674,"Ġoperator":5675,"men":5676,"apped":5677,"_per":5678,"zen":5679,"(\".":5680,".save":5681,"=\"{{":5682,"Ġtor":5683,"(response":5684,"Ġcandid":5685,"Ġconv":5686,"ailed":5687,"ĠLib":5688,"comp":5689,"ura":5690,"ï¿½":5691,"ĠHere":5692,"Ġargument":5693,"hood":5694,"Ġestablish":5695,"ography":5696,"ĠonClick":5697,"ambda":5698,"Ġsch":5699,"Ġmovie":5700,"Ġsec":5701,"Ġactivity":5702,"Ø§":5703,"Ġsql":5704,"_all":5705,"incip":5706,"Ġprovides":5707,"Ġsys":5708,"acket":5709,"Ġwasn":5710,"Ġuses":5711,"ĠFunction":5712,".google":5713,"ĠResult":5714,"Visible":5715,"agma":5716,"elcome":5717,"ĠSy":5718,"ĠCent":5719,"ALSE":5720,"aciÃ³n":5721,"EXT":5722,"Ġlicense":5723,"ĠLong":5724,"Ġaccom":5725,"Ġability":5726,".height":5727,"Active":5728,"ological":5729,"oly":5730,")),":5731,".Se":5732,"Ġparameter":5733,"prite":5734,"ABILITY":5735,".service":5736,"ĠGroup":5737,"_query":5738,"ĠItem":5739,"ining":5740,"Ġjud":5741,"ims":5742,"fix":5743,"inder":5744,"agram":5745,"Ġfunctions":5746,"Ġexperi":5747,"ĠEm":5748,"Ġrot":5749,"Ġpen":5750,".btn":5751,"ĠAS":5752,"#ifdef":5753,"Ġchoice":5754,"ĠPage":5755,"_PRO":5756,"QU":5757,"åı":5758,"antity":5759,"ÂŃ":5760,"words":5761,"Ġreadonly":5762,"Ġflex":5763,"protected":5764,"ĠAny":5765,"Ġcharacters":5766,"enced":5767,"ĠJuly":5768,"iler":5769,"Card":5770,"urance":5771,"Ġrev":5772,".event":5773,"aly":5774,"Ġwonder":5775,"ĠPort":5776,"Ġlegal":5777,"role":5778,"Ġten":5779,"Ġgoes":5780,"MP":5781,"white":5782,"):čĊ":5783,"))čĊ":5784,"Ġreference":5785,"Ġmis":5786,"ĠProject":5787,"icks":5788,">&":5789,"CON":5790,"Ġrepl":5791,"Ġregular":5792,"Storage":5793,"ramework":5794,"Ġgoal":5795,"Ġtouch":5796,".widget":5797,"Ġbuilt":5798,"des":5799,"Part":5800,"(re":5801,"Ġworth":5802,"hib":5803,"game":5804,"ĠÐ²":5805,"acion":5806,"ĠWhite":5807,"(type":5808,"(`":5809,"Ġnatural":5810,"Ġinj":5811,"Ġcalcul":5812,"ĠApril":5813,".List":5814,"Ġassociated":5815,"ĉSystem":5816,"~~":5817,"=[":5818,"Ġstorage":5819,"Ġbytes":5820,"Ġtravel":5821,"Ġsou":5822,"Ġpassed":5823,"!=":5824,"ascript":5825,".open":5826,"Ġgrid":5827,"Ġbus":5828,"Ġrecogn":5829,"Ab":5830,"Ġhon":5831,"ĠCenter":5832,"Ġprec":5833,"build":5834,"HTML":5835,"ĠSan":5836,"Ġcountries":5837,"aled":5838,"token":5839,"kt":5840,"Ġqual":5841,"Last":5842,"adow":5843,"Ġmanufact":5844,"idad":5845,"jango":5846,"Next":5847,"xf":5848,".a":5849,"Ġporno":5850,"ĠPM":5851,"erve":5852,"iting":5853,"_th":5854,"ci":5855,"=None":5856,"gs":5857,"Ġlogin":5858,"atives":5859,"']);Ċ":5860,"Äħ":5861,"Ġill":5862,"IA":5863,"children":5864,"DO":5865,"Ġlevels":5866,"Ġ{{":5867,"Ġlooks":5868,"Ġ\"#":5869,"ToString":5870,"Ġnecessary":5871,"ĠĠĠĊ":5872,"cell":5873,"Entry":5874,"Ġ'#":5875,"Ġextrem":5876,"Selector":5877,"Ġplaceholder":5878,"Load":5879,"Ġreleased":5880,"ORE":5881,"Enumer":5882,"ĠTV":5883,"SET":5884,"inq":5885,"Press":5886,"ĠDepartment":5887,"Ġproperties":5888,"Ġrespond":5889,"Search":5890,"ael":5891,"Ġrequ":5892,"ĠBook":5893,"/Ċ":5894,"(st":5895,"Ġfinancial":5896,"icket":5897,"_input":5898,"Ġthreat":5899,"(in":5900,"Strip":5901,"ìĿ":5902,"Ã§Ã£o":5903,"Ġevidence":5904,"));":5905,"ĠBro":5906,"Ġ[];Ċ":5907,"Ġou":5908,"buf":5909,"Script":5910,"dat":5911,"Ġrule":5912,"#import":5913,"=\"/":5914,"Serial":5915,"Ġstarting":5916,"[index":5917,"ae":5918,"Ġcontrib":5919,"session":5920,"_new":5921,"utable":5922,"ober":5923,"Ġ\"./":5924,"Ġlogger":5925,"Ġrecently":5926,"Ġreturned":5927,"ččĊ":5928,")))Ċ":5929,"itions":5930,"Ġseek":5931,"Ġcommunic":5932,"Ġ\".":5933,"Ġusername":5934,"ECT":5935,"DS":5936,"Ġotherwise":5937,"ĠGerman":5938,".aw":5939,"Adapter":5940,"ixel":5941,"Ġsystems":5942,"Ġdrop":5943,"Ġstructure":5944,"Ġ$(\"#":5945,"encies":5946,"anning":5947,"ĠLink":5948,"ĠResponse":5949,"Ġstri":5950,"Å¼":5951,"ĠDB":5952,"æĹ":5953,"android":5954,"submit":5955,"otion":5956,"(@":5957,".test":5958,"ĊĊĊĊĊĊĊĊ":5959,"];čĊ":5960,"Ġdirectly":5961,"Ġ\"%":5962,"ris":5963,"elta":5964,"AIL":5965,"){čĊ":5966,"mine":5967,"ĠĠĠĠĠĠĠĠĠĠĠĠĠĠĠĠĠĠĠĠĠĠĠĠĠĠ":5968,"(k":5969,"bon":5970,"asic":5971,"pite":5972,"___":5973,"Max":5974,"Ġerrors":5975,"ĠWhile":5976,"Ġarguments":5977,"Ġensure":5978,"Right":5979,"-based":5980,"Web":5981,"Ġ-=":5982,"Ġintrodu":5983,"ĠInst":5984,"ĠWash":5985,"ordin":5986,"join":5987,"Database":5988,"Ġgrad":5989,"Ġusually":5990,"ITE":5991,"Props":5992,"?>Ċ":5993,"ĠGo":5994,"@Override":5995,"REF":5996,"Ġip":5997,"ĠAustral":5998,"Ġist":5999,"ViewById":6000,"Ġserious":6001,"Ġcustomer":6002,".prototype":6003,"odo":6004,"cor":6005,"Ġdoor":6006,"ĠWITHOUT":6007,"Ġplant":6008,"Ġbegan":6009,"Ġdistance":6010,"()).":6011,"Ġchance":6012,"Ġord":6013,"came":6014,"pragma":6015,"Ġprotect":6016,"ragment":6017,"ĠNode":6018,"ening":6019,"Ñĩ":6020,"Ġroute":6021,"ĠSchool":6022,"hi":6023,"Ġneighb":6024,"After":6025,"licit":6026,"Ġcontr":6027,"Ġprimary":6028,"AA":6029,".WriteLine":6030,"utils":6031,"Ġbi":6032,"Red":6033,".Linq":6034,".object":6035,"Ġleaders":6036,"unities":6037,"Ġgun":6038,"onth":6039,"ĠDev":6040,"FILE":6041,"Ġcomments":6042,"_len":6043,"arrow":6044,"amount":6045,"Range":6046,"sert":6047,"GridView":6048,"Ġupdated":6049,"ĠMo":6050,"Ġinform":6051,"ociety":6052,"ala":6053,"Access":6054,"Ġhab":6055,"Ġcreat":6056,"_arg":6057,"ĠJanuary":6058,"ĠDay":6059,"\")čĊ":6060,"uple":6061,"document":6062,"gorith":6063,"menu":6064,"ĠOver":6065,"bb":6066,".title":6067,"_out":6068,"Ġled":6069,"uri":6070,"Ġ?></":6071,"gl":6072,"Ġbank":6073,"ayment":6074,"ĉprintf":6075,"MD":6076,"Ġsample":6077,"Ġhands":6078,"ĠVersion":6079,"uario":6080,"Ġoffers":6081,"ityEngine":6082,"Ġshape":6083,"Ġsleep":6084,"_point":6085,"Settings":6086,"Ġachie":6087,"Ġsold":6088,"ota":6089,".bind":6090,"Am":6091,"Ġsafe":6092,"Store":6093,"Ġshared":6094,"Ġpriv":6095,"_VAL":6096,"Ġsens":6097,"){":6098,"Ġremember":6099,"shared":6100,"element":6101,"Ġshoot":6102,"Vert":6103,"cout":6104,"Ġenv":6105,"_label":6106,"Ġ>Ċ":6107,"run":6108,"Ġscene":6109,"(array":6110,"device":6111,"_title":6112,"agon":6113,"]čĊ":6114,"aby":6115,"Ġbecame":6116,"boolean":6117,"Ġpark":6118,"ĠCode":6119,"upload":6120,"riday":6121,"ĠSeptember":6122,"Fe":6123,"Ġsen":6124,"cing":6125,"FL":6126,"Col":6127,"uts":6128,"_page":6129,"inn":6130,"Ġimplied":6131,"aling":6132,"Ġyourself":6133,".Count":6134,"conf":6135,"Ġaud":6136,"_init":6137,".)":6138,"Ġwrote":6139,"NG":6140,".Error":6141,"ä»":6142,".for":6143,"Ġequal":6144,"ĠRequest":6145,"Ġserial":6146,"Ġallows":6147,"XX":6148,"Ġmiddle":6149,"chor":6150,"Ã¸":6151,"erval":6152,".Column":6153,"reading":6154,"Ġescort":6155,"ĠAugust":6156,"Ġquickly":6157,"Ġweap":6158,"ĠCG":6159,"ropri":6160,"ho":6161,"Ġcop":6162,"(struct":6163,"ĠBig":6164,"Ġvs":6165,"Ġfrequ":6166,".Value":6167,"Ġactions":6168,"Ġproper":6169,"Ġinn":6170,"Ġobjects":6171,"Ġmatrix":6172,"avascript":6173,"Ġones":6174,".group":6175,"Ġgreen":6176,"Ġpaint":6177,"ools":6178,"ycl":6179,"encode":6180,"olt":6181,"comment":6182,".api":6183,"Dir":6184,"Ġune":6185,"izont":6186,".position":6187,"Ġdesigned":6188,"_val":6189,"avi":6190,"iring":6191,"tab":6192,"Ġlayer":6193,"Ġviews":6194,"Ġreve":6195,"rael":6196,"ĠON":6197,"rics":6198,"np":6199,"Ġcore":6200,"());čĊ":6201,"Main":6202,"Ġexpert":6203,"ĉĉčĊ":6204,"_en":6205,"Ġ/>":6206,"utter":6207,"IAL":6208,"ails":6209,"ĠKing":6210,"*/ĊĊ":6211,"ĠMet":6212,"_end":6213,"addr":6214,"ora":6215,"Ġir":6216,"Min":6217,"Ġsurpr":6218,"Ġrepe":6219,"Ġdirectory":6220,"PUT":6221,"-S":6222,"Ġelection":6223,"haps":6224,".pre":6225,"cm":6226,"Values":6227,"Ġ\"Ċ":6228,"column":6229,"ivil":6230,"Login":6231,"inue":6232,"Ġbeautiful":6233,"Ġsecret":6234,"(event":6235,"Ġchat":6236,"ums":6237,"Ġorigin":6238,"Ġeffects":6239,"Ġmanagement":6240,"illa":6241,"tk":6242,"Ġsetting":6243,"ĠCour":6244,"Ġmassage":6245,"ĉend":6246,"Ġhappy":6247,"Ġfinish":6248,"Ġcamera":6249,"ĠVer":6250,"ĠDemocr":6251,"ĠHer":6252,"(Q":6253,"cons":6254,"ita":6255,"Ġ'.":6256,"{}":6257,"ĉC":6258,"Ġstuff":6259,"Ġ:Ċ":6260,"ĠAR":6261,"Task":6262,"hidden":6263,"eros":6264,"IGN":6265,"atio":6266,"ĠHealth":6267,"olute":6268,"Enter":6269,"'>":6270,"ĠTwitter":6271,"ĠCounty":6272,"scribe":6273,"Ġ=>Ċ":6274,"Ġhy":6275,"fit":6276,"Ġmilitary":6277,"Ġsale":6278,"required":6279,"non":6280,"bootstrap":6281,"hold":6282,"rim":6283,"-old":6284,"ĠDown":6285,"Ġmention":6286,"contact":6287,"_group":6288,"oday":6289,"Ġtown":6290,"Ġsolution":6291,"uate":6292,"elling":6293,"]->":6294,"otes":6295,"ental":6296,"omen":6297,"ospital":6298,"ĠSup":6299,"_EN":6300,"Ġslow":6301,"SESSION":6302,"Ġblue":6303,"ago":6304,"Ġlives":6305,"Ġ^":6306,".un":6307,"inst":6308,"enge":6309,"Ġcustomers":6310,"Ġcast":6311,"udget":6312,"ï¼ģ":6313,"icens":6314,"Ġdetermin":6315,"Selected":6316,"_pl":6317,"ueue":6318,"Ġdark":6319,"//ĊĊ":6320,"si":6321,"thern":6322,"ĠJapan":6323,"/w":6324,"PU":6325,"ĠEast":6326,"ovie":6327,"Ġpackage":6328,"Ġnor":6329,"Ġapi":6330,"bot":6331,"\"];Ċ":6332,"_post":6333,"ulate":6334,"Ġclub":6335,"'));Ċ":6336,"Ġloop":6337,"PIO":6338,"ione":6339,"shot":6340,"Initial":6341,"Ġplayed":6342,"register":6343,"rought":6344,"_max":6345,"acement":6346,"match":6347,"raphics":6348,"AST":6349,"Ġexisting":6350,"Ġcomplex":6351,"DA":6352,".Ch":6353,".common":6354,"mo":6355,"Ġ'../../":6356,"ito":6357,"Ġanalysis":6358,"Ġdeliver":6359,"ĠĠĠĠĠĠĠĠĠĠĠĠĠĠĠĠĊ":6360,"idx":6361,"Ãł":6362,"ongo":6363,"ĠEnglish":6364,"<!--":6365,"Ġcomputer":6366,"ENSE":6367,"Ġpas":6368,"Ġrais":6369,"Hash":6370,"Ġmobile":6371,"Ġowner":6372,"FIG":6373,"ĠĠĠĠĠĠĠĠĠĠĠĠĠĠĠĠĠĠĠĠĠĠĠĠĠĠĠĠĠĠĠĠĠĠĠĠĠĠĠĠĠĠĠĠĠĠĠĠĠĠĠ":6374,"thes":6375,"Ġattr":6376,"wd":6377,".time":6378,"awn":6379,"Ġtreatment":6380,"ĠAc":6381,".View":6382,"impl":6383,"more":6384,"pass":6385,"Ġha":6386,".from":6387,"Ġleading":6388,"FFFF":6389,"(error":6390,".ui":6391,"atar":6392,"aders":6393,"dates":6394,"Ġzu":6395,"Ġflow":6396,"Target":6397,"Ġinvolved":6398,"Ġio":6399,"parse":6400,"$_":6401,"hest":6402,".int":6403,"-item":6404,"asy":6405,"Sp":6406,"Ġshift":6407,"NT":6408,"Ġtf":6409,"_TR":6410,".web":6411,"CS":6412,"Ġ})":6413,"Ġeyes":6414,"_z":6415,"');čĊ":6416,"iforn":6417,"Ġ{@":6418,"Ġnice":6419,".list":6420,"ĠĠĠĠčĊ":6421,"Ġfloor":6422,"Ġredirect":6423,"ĠUK":6424,"(['":6425,"Ġwish":6426,"Ġcapt":6427,"legal":6428,"ĠIO":6429,"Ġstage":6430,".String":6431,"ĠAfr":6432,"igen":6433,"ĠSH":6434,"Delete":6435,"ells":6436,"Ġsolid":6437,"Ġmeeting":6438,"Ġworked":6439,"Ġeditor":6440,"iny":6441,"Ð¼":6442,"_read":6443,".Id":6444,"eff":6445,"Offset":6446,"cha":6447,"USER":6448,"ĉĉĠĠĠ":6449,"ipped":6450,"Ġdict":6451,"ĠRun":6452,".hpp":6453,"Ġang":6454,"xml":6455,"imple":6456,"Ġmedical":6457,"_token":6458,"connect":6459,"Ġhour":6460,"Ġcontroller":6461,"_message":6462,"UID":6463,"Gr":6464,"anded":6465,"_CH":6466,"Ġbooks":6467,"Ġspeak":6468,"aming":6469,"Ġmount":6470,"Record":6471,"ĉstruct":6472,".Web":6473,"ondon":6474,"Ġ//Ċ":6475,"Ġfelt":6476,".Auto":6477,"idge":6478,"_pos":6479,"PR":6480,"Ġmodern":6481,"Collection":6482,"_msg":6483,"CD":6484,"ĠLo":6485,"Ġseconds":6486,"ibly":6487,".equals":6488,"Ġinternational":6489,"#pragma":6490,"ooth":6491,"Writer":6492,"iate":6493,"Ġcele":6494,"ĠBit":6495,"ivo":6496,"ivery":6497,"rd":6498,"HECK":6499,"Ġcache":6500,".count":6501,"Ġroll":6502,".Read":6503,"RED":6504,"Ġsetup":6505,"izontal":6506,"models":6507,"argv":6508,"Ġconsidered":6509,"=\"../":6510,"settings":6511,"ĠRel":6512,"Ġgrowth":6513,"Ġmix":6514,"ĠWashington":6515,"Ġplt":6516,"ĠIM":6517,"áº":6518,"Ġturned":6519,"ĠDateTime":6520,"ĠWed":6521,"(url":6522,"Ġ\"-":6523,"Ġletter":6524,"Async":6525,"ĠĠĠĠĠĠĠĠĠĠĠĠĠĠĠĠĠĠĠĠĠĠĠĠĠĠĠĠ":6526,"ĠOctober":6527,"_line":6528,"Ġattention":6529,"Ġcollect":6530,"ĠHash":6531,"Ġimag":6532,"Tree":6533,"Ġsituation":6534,"ette":6535,"_no":6536,"IVE":6537,"Ġvon":6538,".target":6539,"Ġknowledge":6540,"Ġdrive":6541,".post":6542,"Ġblood":6543,"Ġcit":6544,"primary":6545,"Ġconfiguration":6546,"tee":6547,"Ġphoto":6548,"isode":6549,"Trace":6550,"Ġgave":6551,"Ġshot":6552,"ĠAir":6553,"Ġmother":6554,"price":6555,"Ġmorning":6556,")){Ċ":6557,"-x":6558,"Ġtrade":6559,"Ġdesc":6560,"Ġ&&Ċ":6561,"Ġparents":6562,"Api":6563,"åĪ":6564,"ted":6565,"wer":6566,"Ġæ":6567,"Ġsy":6568,"ĠKe":6569,"Parser":6570,"åħ":6571,"ancy":6572,"Ġpiece":6573,"ifornia":6574,"toString":6575,"ran":6576,"iding":6577,"PTION":6578,"comes":6579,"/lic":6580,".client":6581,"El":6582,"Long":6583,"Ġprofessional":6584,"rupt":6585,"va":6586,"Ġcompletely":6587,"Ġpractice":6588,"Ġselection":6589,"Rem":6590,"ini":6591,"Ġcam":6592,"REE":6593,"Ġsites":6594,"pa":6595,"ATUS":6596,"ÑģÑĤ":6597,"arrant":6598,"*(":6599,"_KEY":6600,"ĠButton":6601,"ĠFriday":6602,"sequ":6603,"Ġreader":6604,"Ġmessages":6605,"è¯":6606,"Ġbuf":6607,"Ke":6608,"Ġnov":6609,"HP":6610,"Msg":6611,"align":6612,"arily":6613,"Ġ',":6614,"_with":6615,"Ġdas":6616,"Ġheard":6617,"atomic":6618,"rial":6619,")[":6620,"Ġdise":6621,"@end":6622,"Ġgold":6623,"Ġfair":6624,"Ġsales":6625,".Button":6626,"strict":6627,"save":6628,"Ġmeasure":6629,"Ġ\"+":6630,"ecause":6631,"ViewController":6632,"ĠTable":6633,".param":6634,"Ġdecided":6635,"(((":6636,"INFO":6637,"Ġopportunity":6638,"Te":6639,"ICENSE":6640,"ccording":6641,"ki":6642,"ĠUN":6643,"Ġcontain":6644,"Ġmanager":6645,"Ġpain":6646,"ĠFire":6647,"rome":6648,"Ġplans":6649,"Found":6650,"lay":6651,"ĠDecember":6652,"Ġinflu":6653,"Ãº":6654,"rench":6655,"ĠĠĠĠĠĠĠĠĠĠĠĠĠĠĠĠĠĠĠĠĠĠĠĠĠĠĠĠĠĠĠĠĠ":6656,"azing":6657,"brief":6658,"call":6659,"wood":6660,"Ġloaded":6661,"Ġgrand":6662,"/f":6663,"imp":6664,"_U":6665,"STR":6666,"âĢ¢":6667,"Ġcredit":6668,".Color":6669,"orge":6670,"QUEST":6671,"Ġdifference":6672,"ĠPC":6673,"wargs":6674,"Ġpub":6675,"unday":6676,"Ġfra":6677,".max":6678,"Ġtried":6679,"annels":6680,"send":6681,"Ġreports":6682,"Ġadult":6683,"äº":6684,"Ġconsist":6685,"ĠStreet":6686,"ĠProgram":6687,"SQL":6688,"Matrix":6689,"ouncil":6690,"-A":6691,"ĉw":6692,"Ġwhose":6693,"Ġrelig":6694,"ĠSex":6695,"Ġgives":6696,"none":6697,".message":6698,"(G":6699,".awt":6700,"-right":6701,"ĠNovember":6702,"ellig":6703,"utive":6704,"Äĥ":6705,"overn":6706,"Ġeasily":6707,"Ġideas":6708,"ĠÐ½":6709,"/css":6710,"lying":6711,"elle":6712,"Can":6713,"_color":6714,"Ð¾Ð²":6715,"Ġpair":6716,"ngth":6717,"Ġsplit":6718,"drop":6719,"arty":6720,"ona":6721,"Ġcapital":6722,"Ġhear":6723,"Ġexists":6724,"ĉlog":6725,"emo":6726,"Run":6727,"oi":6728,"Ġparser":6729,"ĠMethod":6730,"Ġeducation":6731,"[k":6732,"Ġlibrary":6733,">\";Ċ":6734,"_UN":6735,"ĉstd":6736,"oded":6737,"Ġcalls":6738,"here":6739,"Rel":6740,"Ġbrand":6741,"background":6742,"ga":6743,"_address":6744,"_params":6745,"Category":6746,"ĠIndia":6747,"_event":6748,"Ġing":6749,"Render":6750,".cl":6751,"umpy":6752,"Ġpet":6753,"FC":6754,"ĠAnt":6755,"Ext":6756,"Ġcharge":6757,"ened":6758,"grad":6759,"EO":6760,"Ġdepend":6761,"Ġ.ĊĊ":6762,"frame":6763,"Ġdf":6764,"Ġhuge":6765,"ĠPART":6766,"eds":6767,";;":6768,"ĠAM":6769,"Ġbasic":6770,"ĠLet":6771,"lich":6772,"Ġarm":6773,"Ġstar":6774,"Ġfederal":6775,"Work":6776,"Ġcarry":6777,"ĠIsrael":6778,"(obj":6779,"={{":6780,"Ġsaved":6781,"Ġsyn":6782,"Ġconstant":6783,"VENT":6784,"Ġpositive":6785,"Ġconduct":6786,"Ġskin":6787,"Ġearlier":6788,"Ġlayout":6789,"ĠIP":6790,"OUR":6791,"Ġtim":6792,"stylesheet":6793,"_cl":6794,"ĠCard":6795,"++){Ċ":6796,"Ġtemper":6797,"ĠDavid":6798,"ĉtry":6799,".dart":6800,"Ġwants":6801,"Ġpicture":6802,"Ġvideos":6803,"ĠComm":6804,"isions":6805,"_MAX":6806,"Mapping":6807,"-content":6808,"ĠEar":6809,"-de":6810,"Ġprem":6811,"bruary":6812,"Ġcomponents":6813,"Ġthroughout":6814,"Ġpull":6815,"Ġpages":6816,"ente":6817,"respond":6818,"Ġgas":6819,"criptor":6820,"Ġedge":6821,"Ġbound":6822,"ACT":6823,"******":6824,"Ġcreating":6825,"ĠCH":6826,"Ġnullptr":6827,"Br":6828,"+'":6829,".co":6830,">::":6831,"Ġlearning":6832,".Length":6833,"_SH":6834,"Ġpatients":6835,"AIN":6836,"Ġkids":6837,"Ġcomfort":6838,"Ġshown":6839,"ugins":6840,"ĠBack":6841,"ella":6842,"_CL":6843,"Ġlat":6844,"Ġdispatch":6845,"Ġclasses":6846,".at":6847,".begin":6848,"Ġsuccessful":6849,"ban":6850,"Ġobtain":6851,"ĠSl":6852,"Ġlack":6853,"iterator":6854,"Thread":6855,"(size":6856,"Ġnone":6857,".has":6858,"_X":6859,"sort":6860,"nap":6861,"pet":6862,"bin":6863,"ĠCanada":6864,"They":6865,"Ġdans":6866,"ĠMat":6867,"<td":6868,"Ġhair":6869,"Ġ'',Ċ":6870,"Ġcu":6871,"Ġlaws":6872,"leted":6873,"ped":6874,"Ġpow":6875,"Ġknew":6876,"_COM":6877,"_,":6878,"ĠMag":6879,"idents":6880,"(req":6881,"Ġ),":6882,"-center":6883,"Ġwide":6884,"ĠAuthor":6885,"stants":6886,"Ġjobs":6887,"Ġmath":6888,"etimes":6889,"Boolean":6890,"Ġscope":6891,"_is":6892,"Ġmeas":6893,"Ġkeys":6894,"elay":6895,"Ġexactly":6896,"'=>'":6897,"ĠPaul":6898,"mas":6899,"ĉprint":6900,"(len":6901,"fd":6902,"Ġ);":6903,".Event":6904,"qli":6905,"irit":6906,"ields":6907,"oman":6908,"ĠTop":6909,"Ġvote":6910,"Ġmask":6911,"Ġtheme":6912,"-Ċ":6913,"Ġprops":6914,"Ġfine":6915,"Ġwriter":6916,"_offset":6917,"car":6918,"Ġaltern":6919,"Ġcopyright":6920,"Ġdestroy":6921,"pper":6922,"Ġgenerate":6923,"pped":6924,"âĢĻd":6925,"ĠĠĠĠĠĠĊ":6926,"make":6927,"ĠShow":6928,"Ġbrowser":6929,"Ġfavorite":6930,"Ġcareer":6931,"Ġhappened":6932,"(char":6933,"Ġrecommend":6934,"Ġliter":6935,".filter":6936,"grade":6937,"ĠÂ£":6938,"Phone":6939,"oms":6940,"Ġnamed":6941,"-label":6942,"ipo":6943,"ĠOther":6944,"Ġpanel":6945,"Ġrock":6946,"Scale":6947,"ĉassert":6948,"Ð´":6949,"Ġtrust":6950,"front":6951,"Ġdemon":6952,"Ar":6953,"Net":6954,"Ġeconomic":6955,"footer":6956,"Ġrace":6957,"(node":6958,"ĠOption":6959,"split":6960,"Ġphysical":6961,"ifest":6962,"Ġremoved":6963,".http":6964,")),Ċ":6965,"Ġlooked":6966,"';":6967,"ding":6968,"gest":6969,"aturday":6970,"/licenses":6971,"Price":6972,"Ġdro":6973,"Ġtowards":6974,"Ġuns":6975,"ĠCL":6976,"ĉstatic":6977,"Ġrows":6978,"Ġdefine":6979,".replace":6980,"Ġfather":6981,"ĠDesign":6982,"assign":6983,"mut":6984,"Device":6985,"Did":6986,"'))Ċ":6987,"ometry":6988,"ayload":6989,"Ġhistor":6990,"ĠParam":6991,"ĠBoolean":6992,"Ġnature":6993,"Ġjs":6994,"Ġnation":6995,"ih":6996,"Ġdiscover":6997,"sem":6998,"Handle":6999,"ĉr":7000,"ĠTechn":7001,"Ġwall":7002,"{$":7003,"@property":7004,"Ġ\"../":7005,"Ġexam":7006,".draw":7007,"opping":7008,"Ġnearly":7009,"Ġcool":7010,"Ġindepend":7011,"RES":7012,"Ġhandler":7013,"ĠMonday":7014,"Ġsun":7015,"Styles":7016,"ously":7017,"Ġĉ":7018,"vest":7019,"Display":7020,"(y":7021,"atically":7022,"Ġpredict":7023,"ying":7024,"Ġsometimes":7025,"\"]Ċ":7026,"Ġdrink":7027,"Ġbul":7028,"ifications":7029,".insert":7030,".reg":7031,"Ġtests":7032,"Alignment":7033,"Ġalleg":7034,"Ġattribute":7035,"ĠNote":7036,"Ġmyself":7037,"arts":7038,"Now":7039,"Ġinteresting":7040,"lients":7041,"Ġpopulation":7042,"ĠCalifornia":7043,"\"I":7044,"å¹":7045,"Ġgreater":7046,"uesday":7047,"Ġthous":7048,"Ġcosts":7049,"Ġlaunch":7050,"\\Http":7051,"ker":7052,"band":7053,"ĠPlay":7054,"Ġband":7055,".shape":7056,"esome":7057,"article":7058,".rf":7059,"Ġwer":7060,"Ã¡s":7061,"embers":7062,"usr":7063,"BA":7064,"ican":7065,"ett":7066,"validate":7067,"ulti":7068,"Ġimmediately":7069,"zer":7070,"Ġfigure":7071,"oes":7072,"eller":7073,"ircle":7074,"ĠSign":7075,".db":7076,"Ġrank":7077,"Bytes":7078,"Ġprojects":7079,"_rec":7080,"ULAR":7081,"API":7082,"ĠLine":7083,"Port":7084,"Ġpoll":7085,"Ġgiving":7086,"idence":7087,"--Ċ":7088,"Ġplot":7089,"icial":7090,"Ġwarrant":7091,"ITION":7092,"ĠDouble":7093,"Ġbillion":7094,"gorithm":7095,"Ġequipment":7096,"DATE":7097,"Ġ@\"":7098,"EE":7099,"Ġple":7100,"iation":7101,"Ġheaders":7102,"Ġproced":7103,".ComponentModel":7104,"ĠObama":7105,"Ġpa":7106,"ĠBest":7107,"imately":7108,".getString":7109,".\\":7110,"mploy":7111,"Ġraw":7112,"_block":7113,"undred":7114,"\"},Ċ":7115,".GroupLayout":7116,"Ġbrought":7117,"NSString":7118,"throw":7119,"created":7120,".New":7121,"_view":7122,"CP":7123,"eps":7124,"Op":7125,"Ġgratis":7126,"Ġ'\"":7127,"Ġinterview":7128,"\"\"\"Ċ":7129,"Ġpartial":7130,"Ġaria":7131,"bing":7132,"Author":7133,"Book":7134,"ĠPat":7135,"uman":7136,"Users":7137,"plus":7138,"ĠDirect":7139,"venue":7140,"alpha":7141,"UCCESS":7142,"ĠCall":7143,"Ġ);čĊ":7144,"imated":7145,"Ġremain":7146,"Ġanti":7147,"ĠLondon":7148,"Ġsafety":7149,"POSE":7150,"oles":7151,"controller":7152,"Byte":7153,"ĠCourt":7154,"ĠPhil":7155,"ĠAssoci":7156,"ena":7157,"åĲ":7158,"_STR":7159,"coin":7160,"reshold":7161,"Ġbatch":7162,"_Click":7163,"entication":7164,">';Ċ":7165,"enty":7166,"Ġbeginning":7167,"Ġzero":7168,"ĠConvert":7169,"Ġterr":7170,"Ġpaid":7171,"Ġincreased":7172,"catch":7173,"-size":7174,"activity":7175,"equals":7176,"Ġqueue":7177,"Ġ\"'":7178,"ĠInternational":7179,"ĠfÃ¼r":7180,"ursday":7181,"Ġscient":7182,"allow":7183,"axis":7184,"Ġappropri":7185,"edge":7186,"Ġidx":7187,"Success":7188,"entifier":7189,":\\":7190,"xis":7191,"Ġmaximum":7192,"arks":7193,"Ġbirth":7194,"(index":7195,"Ġmaybe":7196,".py":7197,"files":7198,"Ġlimited":7199,"_check":7200,"look":7201,"plies":7202,"Ġmovement":7203,"'].":7204,"Ġbroad":7205,"ĠBE":7206,"ĠUnityEngine":7207,".cpp":7208,"ĠEvery":7209,"Admin":7210,"Ġfans":7211,"pared":7212,"ĊĠĠĠĠĊ":7213,"Ġforeign":7214,"Ġpan":7215,"Ġtour":7216,"ĠOrder":7217,"Ġmoving":7218,"Ġauf":7219,"Call":7220,"cb":7221,"ÅŁ":7222,"ventory":7223,"ĠSql":7224,"Ġfully":7225,"ClickListener":7226,"WORD":7227,"Ġannounced":7228,")čĊčĊ":7229,"Ġagreed":7230,"rie":7231,"Ġearn":7232,"_link":7233,".array":7234,"(text":7235,"Ġmaterials":7236,",p":7237,"ffff":7238,"vg":7239,"ĠÂ©":7240,"Ġunless":7241,"ajax":7242,"LOG":7243,"Ġsexual":7244,"Ġ\\\"":7245,"-time":7246,"Ġcoach":7247,"Ġsupported":7248,"Ġphotos":7249,"iform":7250,".Create":7251,")]":7252,"rier":7253,"Ġdialog":7254,"aver":7255,"ige":7256,")+":7257,"_idx":7258,":[":7259,"_min":7260,"ĠCong":7261,"Ġpressure":7262,"Ġteams":7263,"Sign":7264,"begin":7265,"rian":7266,"NESS":7267,"LS":7268,"Ġimprove":7269,"ĠSunday":7270,"Ġdefinition":7271,"iger":7272,"rollers":7273,"Ġthinking":7274,"Template":7275,"-F":7276,"Ġemerg":7277,"plates":7278,"ĠUSA":7279,".setState":7280,"ĠAlso":7281,"rev":7282,"Ġenable":7283,"ĠCO":7284,"PECT":7285,"Ġconcept":7286,")-":7287,"ĠâĢ¢":7288,"Ġsets":7289,"Ġmeaning":7290,"emon":7291,"ĠCons":7292,"cmp":7293,"eder":7294,"anned":7295,"icensed":7296,"ĠSuper":7297,"Ġdaily":7298,"Ġmulti":7299,"_u":7300,"Ġchalleng":7301,"_mode":7302,"ĠPromise":7303,"Ġstrict":7304,"jo":7305,"inton":7306,"(list":7307,"Only":7308,">{":7309,"Ġvehicle":7310,"íķ":7311,"ĠPlayer":7312,"ĠDel":7313,"Ġpool":7314,".url":7315,"nesday":7316,"();čĊčĊ":7317,"Ġ\");Ċ":7318,"Local":7319,".\");Ċ":7320,"Ġorganization":7321,"render":7322,"ĠApplication":7323,"Ġsummer":7324,"expected":7325,"NA":7326,"Ġrap":7327,"_obj":7328,"Ġsurface":7329,"ĠPUR":7330,"Ġ},ĊĊ":7331,"Ġvariables":7332,"(message":7333,"Ġopin":7334,".back":7335,"Ð°Ð½":7336,"Ġworkers":7337,"vm":7338,"Co":7339,"ughter":7340,"Ġmaster":7341,"Ġ\"\",":7342,"Ġstories":7343,".User":7344,"Ġcelebr":7345,"inese":7346,"BS":7347,"ĠCommand":7348,"ashboard":7349,"Ġog":7350,"kg":7351,".image":7352,".style":7353,"Ġsteps":7354,"ĠBen":7355,"(args":7356,"ĠPerson":7357,",y":7358,"Ġofficials":7359,"|Ċ":7360,"Ġskills":7361,"vc":7362,"Ġbuilder":7363,"Ġgar":7364,"Account":7365,"ĠAuth":7366,"çĶ":7367,"'])Ċ":7368,"ĠAT":7369,"nn":7370,".Int":7371,"SSERT":7372,"Ġeffective":7373,"LETE":7374,"Ġtools":7375,"ARD":7376,"Ġdigital":7377,"Double":7378,"ĠFind":7379,"RC":7380,"Ġinline":7381,"/r":7382,"ARAM":7383,"ASK":7384,"Ġintent":7385,"aight":7386,"_addr":7387,"Ġrequests":7388,".first":7389,"Ġdebug":7390,"Ġspent":7391,"()));Ċ":7392,"ÅĽ":7393,"Ġprincip":7394,"Logger":7395,"cludes":7396,".use":7397,"Ġsurv":7398,"media":7399,"ĠFebruary":7400,"ĠMac":7401,"Ġmissing":7402,"Ġwife":7403,"Ġtalking":7404,"ĠMake":7405,"Ġcart":7406,"Ġlocated":7407,"Enc":7408,"-a":7409,"chron":7410,"Ġcards":7411,"Ġguy":7412,"Ġpers":7413,"ĠYes":7414,"atever":7415,"ĠAng":7416,"olar":7417,"ĠEven":7418,"Ġaccur":7419,"ĠPower":7420,"ĠGold":7421,"clear":7422,"Process":7423,"Ġrecords":7424,"Ġkilled":7425,".clear":7426,"ĠWARRANTIES":7427,"Ġpurpose":7428,"panel":7429,"JECT":7430,"ÃŃa":7431,"Ġexerc":7432,"WS":7433,"/L":7434,".exports":7435,"Ġ___":7436,"Ġsin":7437,"Servlet":7438,"ĠdÃ©":7439,".delete":7440,"roke":7441,"Sl":7442,"ugh":7443,"ears":7444,"Ġpointer":7445,"Ġhop":7446,"allery":7447,"Ġobs":7448,"covery":7449,"ĉchar":7450,"ĉĉĉĉĉĉĉĉĉĉ":7451,"ĉdef":7452,"ocity":7453,"itchen":7454,"ulations":7455,"ĠFIT":7456,"Ġ).":7457,"straints":7458,"vention":7459,"Ġrequires":7460,"ĠOper":7461,"ME":7462,"OUNT":7463,"allet":7464,"Ġnorm":7465,"IRE":7466,"exas":7467,"Ġprograms":7468,"Ġweak":7469,"'.$":7470,"uing":7471,"ĉĠĠĠĠĠĠĠ":7472,"Ġmil":7473,"Ġfirm":7474,"initely":7475,"_VALUE":7476,"apse":7477,"atisf":7478,"Ġdemand":7479,"_mod":7480,"Ġdescribed":7481,"Ġplaces":7482,"VID":7483,"Ġalone":7484,"Ġexport":7485,"Ġvec":7486,"ĠMax":7487,"Ġactivities":7488,"ictures":7489,"gener":7490,"Ġma":7491,"Ĥ¬":7492,"Ġexpression":7493,"Callback":7494,"_content":7495,"ĠMost":7496,"Ġtesting":7497,"EC":7498,"CHANT":7499,"Ġadjust":7500,".Threading":7501,"(ctx":7502,"Ġagree":7503,"ighest":7504,"Ġui":7505,"ĠLaw":7506,".Y":7507,"><?":7508,"Ġpod":7509,"-lg":7510,"âĢĿĊĊ":7511,"Ġdescribe":7512,"ĠEuropean":7513,"-sh":7514,"ĠPURPOSE":7515,"ORY":7516,"Ġconvers":7517,"ĠIlluminate":7518,"ĠAv":7519,"(ch":7520,"?\"":7521,"chen":7522,"ima":7523,"Document":7524,"Ġoperations":7525,"win":7526,"ĉfunction":7527,".Image":7528,"Ġscen":7529,"/h":7530,"ĠSC":7531,"Ġexplo":7532,":%":7533,"/**čĊ":7534,"NAME":7535,"æĪ":7536,"(var":7537,"Ġdirector":7538,"ONG":7539,"Ġyield":7540,"Ġfeet":7541,"ĠSearch":7542,"ĠIl":7543,"Ġrestaur":7544,"duc":7545,"Ġinteger":7546,"Ġ'';Ċ":7547,"Ġhighly":7548,"checked":7549,"ĠPARTIC":7550,"ERCHANT":7551,"ï¼ī":7552,"Ġoptim":7553,"Queue":7554,"ĠLI":7555,"itation":7556,"Ġtransport":7557,"ission":7558,"fill":7559,"usion":7560,"ĠĠĠĠĠĠĠĠĠĠĠĠĠĠĠĠĠĠĠĠĠĠĠĠĠĠĠĠĠĠ":7561,"ĉbool":7562,"-th":7563,"upt":7564,"Ġessential":7565,"anted":7566,"Ġbenefits":7567,"ĉS":7568,"';čĊ":7569,"iki":7570,"Ġgirls":7571,"iced":7572,"buffer":7573,"]+":7574,"Ġsocket":7575,"Ġprices":7576,"ĠFre":7577,"Ġsat":7578,"Ġwood":7579,"MenuItem":7580,"ARG":7581,"ĠAdmin":7582,"OWN":7583,"dk":7584,"Ġreset":7585,"Ġforms":7586,"ĠÐ¸":7587,"æĸ":7588,"ĠTuesday":7589,"ĠInitialized":7590,"_train":7591,"orary":7592,"ategor":7593,"Ġdt":7594,"Total":7595,"construct":7596,"ilies":7597,"Ġguys":7598,"ÐµÑĢ":7599,"Ġinstruction":7600,"yled":7601,"Ġinternet":7602,"etadata":7603,"ady":7604,"faces":7605,"jection":7606,"ĠJack":7607,"Ġrect":7608,"[-":7609,"ĠLeg":7610,"Ġdevices":7611,"OC":7612,"Ġ*čĊ":7613,"oration":7614,"ertain":7615,"Ġguard":7616,"ostream":7617,"Ġenum":7618,".layout":7619,"Ġ\";Ċ":7620,"voke":7621,"ĠOk":7622,"Home":7623,"(tr":7624,"ETH":7625,"Ġdelay":7626,"Ġpurchase":7627,"dc":7628,"Ġaren":7629,"_once":7630,"ĉĉĉĉĊ":7631,"ror":7632,"draw":7633,".run":7634,"(model":7635,"Timeout":7636,"lik":7637,"ĠArg":7638,".en":7639,"Ġfish":7640,"cpy":7641,"_fe":7642,"ERCHANTABILITY":7643,"(X":7644,"_output":7645,"??":7646,"Ġjo":7647,"andard":7648,"Ġdoll":7649,"errors":7650,"_base":7651,"ĠPARTICULAR":7652,"Ġleader":7653,"Ġcompar":7654,"Ġdoub":7655,"ĠVis":7656,"StackTrace":7657,"-C":7658,"ĠStud":7659,"stitute":7660,"More":7661,"ĠDescription":7662,"WARE":7663,"ads":7664,"ĠÐº":7665,"bind":7666,"=self":7667,"employ":7668,"[n":7669,".all":7670,"-B":7671,"&&":7672,"alm":7673,"Ġculture":7674,"house":7675,"Ġsuffer":7676,"Ġ'%":7677,"Ġstraight":7678,"ĠStar":7679,"udo":7680,"Ġded":7681,"ĠCOM":7682,"Ġconfirm":7683,"ĠGood":7684,".sc":7685,"________________":7686,"DR":7687,"Configuration":7688,"DateTime":7689,"Ġadvert":7690,"Ġcouldn":7691,"async":7692,"stack":7693,"')čĊ":7694,"Kit":7695,"Ġhous":7696,"Ġmechan":7697,"rate":7698,"Ġaudio":7699,"ĉcout":7700,"cores":7701,"Ġspot":7702,"Ġincreasing":7703,"Ġ##":7704,")))":7705,"points":7706,"Ġcompared":7707,"lig":7708,"Ġbehavior":7709,"ĠBY":7710,"ĠAtt":7711,"craft":7712,"headers":7713,"ete":7714,"endregion":7715,"Ġdetail":7716,"ULE":7717,"ĠCommon":7718,"ĉprotected":7719,"ston":7720,"ĠFITNESS":7721,"Ġfresh":7722,"\">ĊĊ":7723,".example":7724,"berg":7725,"Ġmoved":7726,"ĉe":7727,"ĠSaturday":7728,"Ġpayload":7729,"Äĩ":7730,"):ĊĊ":7731,"Ġbey":7732,"urer":7733,"<script":7734,"Ġsymbol":7735,"Ġassum":7736,"Ġpul":7737,"Effect":7738,"Ġhundred":7739,"Tool":7740,"aked":7741,"connection":7742,"Ġvoice":7743,"Ġpd":7744,"Ġtransaction":7745,"Ġlinks":7746,"Err":7747,"ĠIndian":7748,"TC":7749,"atalog":7750,"ni":7751,"sign":7752,"<<\"":7753,"ji":7754,"ya":7755,"Ġdemonstr":7756,"ulated":7757,".St":7758,"Ġinstit":7759,"Ġboost":7760,"Ġcells":7761,"olic":7762,".Pro":7763,":</":7764,"EventListener":7765,"ifying":7766,"ĠDi":7767,"orrow":7768,".execute":7769,"Ġcollege":7770,"Your":7771,"Ġlargest":7772,".dis":7773,"Ġqui":7774,"Ġindividuals":7775,"_buffer":7776,"Ġng":7777,"SA":7778,"ĠControl":7779,"Ġsing":7780,"Ġsuit":7781,"ĠĠĠĠĉ":7782,"SG":7783,"Ġjump":7784,"Ġsmart":7785,"oma":7786,"ĠExp":7787,"Ġ'-":7788,"Ġassist":7789,"Ġsuccessfully":7790,"sys":7791,"ĠCre":7792,"_ref":7793,"ĠThursday":7794,"Ġbur":7795,"ĠÐ´":7796,"Ġbeyond":7797,"Ġnodes":7798,"Details":7799,"inct":7800,"ĠJames":7801,"Ġaffect":7802,"exception":7803,"Ġtypeof":7804,"(čĊ":7805,"-se":7806,"Ġfetch":7807,"`,":7808,"Ġcrusher":7809,"}.":7810,"ĠBO":7811,"Show":7812,"Ġrates":7813,"Ġbon":7814,"-icon":7815,"ĠMedia":7816,"RESS":7817,"ĠValid":7818,"Ð¾Ð»":7819,"Ġfuck":7820,"acks":7821,"Ġstudies":7822,"Me":7823,"Ġowners":7824,"}else":7825,"Ġgrowing":7826,"Variable":7827,"ĠBel":7828,".random":7829,"vement":7830,"onym":7831,"(F":7832,"ĠFALSE":7833,"Ġtorch":7834,"(row":7835,"igo":7836,"structure":7837,"Ġcertainly":7838,"Dep":7839,"ĠGreen":7840,"question":7841,"Ġadding":7842,"ĠDevelop":7843,"_def":7844,"Ġmach":7845,"=%":7846,"ĉĉĠ":7847,"conds":7848,"Project":7849,"Ġreject":7850,"ĠÎ":7851,"Ġpoor":7852,"Ġaware":7853,"ĠBuild":7854,"ĠBritish":7855,"ĠNE":7856,"Ġnumer":7857,"rees":7858,"claim":7859,"Ġmock":7860,"Ġom":7861,"Ġscre":7862,"OLD":7863,".pl":7864,"eler":7865,"Ġcorrespond":7866,"_HE":7867,"Ġbinary":7868,"_order":7869,"ĠSQL":7870,"Ġadvant":7871,"Ġprev":7872,".[":7873,".assertEqual":7874,"plier":7875,"arp":7876,"Ġclosed":7877,"Ġencour":7878,"ĠQString":7879,"aud":7880,"Ġdeveloped":7881,"Ġpermission":7882,".debug":7883,"operator":7884,"Ġ'Ċ":7885,"Ġsym":7886,"atively":7887,"Ã©e":7888,"-color":7889,"ĠGET":7890,"ky":7891,"Ġalthough":7892,"_request":7893,"_element":7894,"................":7895,"_DATA":7896,"Ġamazing":7897,"Ġsb":7898,"ĠDefault":7899,"Events":7900,"Ġfailure":7901,"acle":7902,"Properties":7903,"Ġdream":7904,"Ġdistr":7905,"Ġau":7906,"Ġgenerated":7907,"æķ":7908,"ĠTeam":7909,"USE":7910,"Ġincome":7911,"Ġeye":7912,"_not":7913,"\"],":7914,"_form":7915,"Support":7916,"orders":7917,".Print":7918,"ville":7919,"ĠWednesday":7920,"olver":7921,"Ġoppos":7922,"isation":7923,"ola":7924,"Close":7925,"<p":7926,"_width":7927,"Invalid":7928,"xb":7929,"Ġstrugg":7930,"_action":7931,"Ġtxt":7932,"ĠPath":7933,"alar":7934,"ĠMERCHANTABILITY":7935,"service":7936,"ĠMichael":7937,"ableView":7938,"Debug":7939,"okes":7940,"She":7941,"Ġguess":7942,"ĠJava":7943,"_PATH":7944,"Ġparticularly":7945,"ĠII":7946,"Ġdomain":7947,"å¹´":7948,"Ġreduce":7949,"-left":7950,"real":7951,"Ġappears":7952,"Ġcomo":7953,"ĠUnit":7954,"ĠGovern":7955,"ali":7956,"allel":7957,"ĠJew":7958,"_I":7959,"Ġcos":7960,".color":7961,"ĠGlobal":7962,"Ġtele":7963,"ben":7964,"_trans":7965,"Ġreasons":7966,"Ġemb":7967,"ensity":7968,"lines":7969,"omin":7970,"Screen":7971,"Ð°ÑĤ":7972,"pects":7973,"clip":7974,"foo":7975,"rent":7976,"Ġaf":7977,"Ġdanger":7978,"iling":7979,"Names":7980,"Our":7981,"Ġdistribution":7982,"While":7983,"SL":7984,"Write":7985,"Ġgoto":7986,"Ġcolors":7987,"Ġpowerful":7988,"kin":7989,"Ġdepth":7990,"ercial":7991,"ĠCongress":7992,"ĠMarket":7993,"Db":7994,"under":7995,"ĠLast":7996,"ÃŁ":7997,"greg":7998,"Ġposts":7999,"_URL":8000,"otos":8001,"Don":8002,"Ġmicro":8003,"Ġarrest":8004,"Ð¿":8005,"Ġ(@":8006,"ĠHot":8007,"ĠIndex":8008,";&":8009,"#!":8010,"ĠNor":8011,"ĠCap":8012,"-(":8013,"Ġinterested":8014,"pear":8015,"Ġrent":8016,"Ġalbum":8017,"olicy":8018,".lang":8019,".trans":8020,".format":8021,"Ġ{čĊčĊ":8022,"phere":8023,"Ġaxis":8024,"ĠBusiness":8025,"ersistence":8026,"urr":8027,"Ġminimum":8028,"endor":8029,"ĠSD":8030,"ĠInternet":8031,"å¤":8032,"Exp":8033,"iverse":8034,"MM":8035,"Ġobvious":8036,"Ġbasis":8037,"Ġscience":8038,"Ġbudget":8039,"izations":8040,"PA":8041,"Ġflags":8042,"pret":8043,"LOCK":8044,"Ġvariety":8045,"Ġtruth":8046,"dt":8047,"Ġgone":8048,"Ġbattle":8049,"<std":8050,"ĠSil":8051,"rf":8052,"uda":8053,"Ġerot":8054,"ĠCam":8055,"Ġstation":8056,"Ġ'</":8057,"cheme":8058,"ĠSun":8059,"Ġfinished":8060,"Ġshop":8061,"ĠKore":8062,"Ġeight":8063,"_REG":8064,"ND":8065,">,":8066,"\"><?":8067,"(num":8068,"ĉinline":8069,"Transaction":8070,".On":8071,"Ġmail":8072,"rey":8073,"results":8074,"Ġnav":8075,"IMIT":8076,"_ids":8077,"Make":8078,"åĬ":8079,"Modal":8080,"ĠLOG":8081,"ĠSur":8082,"Ġinstanceof":8083,"Ġoverall":8084,"ĠInformation":8085,"Ġconstruction":8086,"_FILE":8087,"but":8088,"Ġmedic":8089,"Ġduration":8090,"itness":8091,"agent":8092,"AV":8093,"Ġseven":8094,"olf":8095,"Ġ}}Ċ":8096,"\"],Ċ":8097,"Ġcalling":8098,"Ġans":8099,"throws":8100,"orizontal":8101,"ĠuseState":8102,".fl":8103,"ĠStatus":8104,"ĠOnline":8105,"RR":8106,"ĠRich":8107,"ĠHill":8108,"Ġbrain":8109,"Ġfollowed":8110,"emic":8111,"Ġslight":8112,"Ġinsurance":8113,".Array":8114,"Ġabstract":8115,"ĠSum":8116,"redirect":8117,"owner":8118,"(msg":8119,"ĠClinton":8120,"Non":8121,"ĉex":8122,"Ġvolume":8123,"ĠEventArgs":8124,"-L":8125,"ĠDim":8126,"ĠMart":8127,"Ġcursor":8128,"Ġimplementation":8129,"urred":8130,"Ġlarger":8131,");ĊĊĊ":8132,"'+":8133,".transform":8134,"Ġupload":8135,"ĠĠĠĠĠĠĠĠĠĠĠĠĠĠĠĠĠĠĠĠĠĠĠĠĠĠĠĠĠĠĠĠĠĠĠĠĠĠĠĠĠĠĠĠĠĠĠĠĠĠĠĠĠĠĠ":8136,"Draw":8137,"nel":8138,"ĉfloat":8139,"qrt":8140,"ĠNetwork":8141,"Ġtit":8142,"Axis":8143,".android":8144,"Ġcompleted":8145,"Ġmur":8146,"Ġcolumns":8147,"xc":8148,"Ġsupply":8149,"iminal":8150,"Ġspr":8151,"================================================================":8152,"Ġunits":8153,"(u":8154,"mi":8155,"replace":8156,"[key":8157,"à¹":8158,"antic":8159,"Ġpayment":8160,",B":8161,"ĠApple":8162,"gin":8163,"Required":8164,"#+":8165,"lands":8166,"Ġsqu":8167,"Ġfactor":8168,"dec":8169,"Ġstrength":8170,"Ġboy":8171,"Ġbalance":8172,"Ġsources":8173,"screen":8174,"-top":8175,"ĠAmazon":8176,"Ġhidden":8177,"ÐµÑĤ":8178,"_client":8179,"Ġeat":8180,".display":8181,"ĠÂ»":8182,"Ġtrigger":8183,"anager":8184,"Ġtro":8185,"Ġclaims":8186,"ford":8187,"ĠCompany":8188,"Ġgift":8189,",:":8190,"_app":8191,"handle":8192,"Ġproduce":8193,"/lib":8194,"Ġ-*":8195,"ĉset":8196,"'];":8197,"arc":8198,"ander":8199,"ĠEngine":8200,"Ġattributes":8201,"task":8202,"<=":8203,"(N":8204,"Ġwarm":8205,"which":8206,"ĠFore":8207,"agnost":8208,"mys":8209,"Ġtal":8210,"ĠSal":8211,"gi":8212,"ĠPrint":8213,"ĠTRUE":8214,"ĠÐ¾":8215,".UI":8216,"Ġflash":8217,"roperty":8218,".location":8219,"ĠMill":8220,"bi":8221,"contr":8222,".request":8223,"ĠSam":8224,"Ġnegative":8225,"kit":8226,"Ġsett":8227,".printStackTrace":8228,"abe":8229,"ĉi":8230,"Ġburn":8231,"Ġsociety":8232,"Cache":8233,"ĠSecurity":8234,".models":8235,"ĠWARRANTY":8236,"_up":8237,"ceive":8238,"Ġclients":8239,".Tr":8240,"Ġproviding":8241,"Ġrout":8242,"material":8243,"Ġ||Ċ":8244,"ĠSer":8245,"ĠOffice":8246,"FTWARE":8247,"Ġ'$":8248,"Ġfoc":8249,"Ġexcell":8250,"Ġcat":8251,"normal":8252,"Ġdetermine":8253,"ĉuint":8254,"Pane":8255,"Ġemployees":8256,"ĠTexas":8257,"Ġtraff":8258,"ĠReport":8259,"anta":8260,"ĠBox":8261,"Ġdjango":8262,"Ġpartner":8263,"EB":8264,"LINE":8265,"Ġfeeling":8266,"Ġcivil":8267,"(float":8268,"Sql":8269,"Ġwouldn":8270,".init":8271,".left":8272,"-v":8273,"_level":8274,"'}":8275,"AF":8276,"Ġloading":8277,"ĠOnly":8278,"Ġcookies":8279,"ĠGl":8280,"CO":8281,"Ġstrategy":8282,"('./":8283,"Ġship":8284,"poses":8285,"Ġsignal":8286,"Ġalpha":8287,".pop":8288,"Radius":8289,"Ġreplace":8290,"_DIR":8291,"counter":8292,"bservable":8293,"ela":8294,"Weight":8295,"hash":8296,"bose":8297,"fx":8298,"ĠEmail":8299,"Ġrefer":8300,"localhost":8301,"_RO":8302,"iques":8303,"Step":8304,"Ġahead":8305,"(View":8306,"ĠServices":8307,"ĠJson":8308,"essor":8309,"Ġpun":8310,"Ġappropriate":8311,"akers":8312,"osen":8313,"posing":8314,"Ġagent":8315,"fc":8316,"Ġtransfer":8317,"Ġinvalid":8318,"ĠResearch":8319,"Vertex":8320,"Ġgay":8321,"Ġjournal":8322,"[x":8323,"Ġ\"\",Ċ":8324,"ĠWell":8325,".Tasks":8326,"Spec":8327,"Ġol":8328,"Ġspend":8329,"ĠAustralia":8330,"Match":8331,".junit":8332,"ĠĠĠĠĠĠĠĠĠĠĠĠĠĠĠĠĠĠĠĠĠĠĠĠĠĠĠĠĠĠĠĠĠĠĠĠĠ":8333,"ĠMAX":8334,"izable":8335,"clusive":8336,"_valid":8337,"Ġquarter":8338,"yan":8339,"ĠEdit":8340,"arden":8341,"=new":8342,"Ġfrag":8343,"Bit":8344,"zi":8345,"aine":8346,"udd":8347,".Object":8348,"debug":8349,"Ġcash":8350,"_IM":8351,"Ġeen":8352,"Ġcommercial":8353,"ĠVideo":8354,"loader":8355,"Ġfixed":8356,"Ġapplications":8357,"Ġ_,":8358,"ĠRussia":8359,"itect":8360,"_(":8361,"ĠBlock":8362,"Ġsan":8363,"ĠTom":8364,"Ġperhaps":8365,"Ġsig":8366,"levant":8367,"Ġcorpor":8368,"ataset":8369,"ronic":8370,"xe":8371,"Ġeth":8372,"Some":8373,"pop":8374,"_OK":8375,"Ġtend":8376,".Res":8377,"_and":8378,"Ġreviews":8379,"Ġwild":8380,"Ġdegree":8381,".O":8382,".objects":8383,"_args":8384,"nil":8385,"Ġdisabled":8386,"Parent":8387,"Ġnotes":8388,"Ġ\"\"Ċ":8389,"(state":8390,"istrict":8391,"Ġlogging":8392,".IO":8393,"ĠMal":8394,"DM":8395,"Ġxml":8396,"ĠRobert":8397,"elen":8398,"layout":8399,"fol":8400,"']))":8401,",b":8402,"ĠJer":8403,"filename":8404,"Ġfan":8405,"ĠCustom":8406,"=\"\"":8407,"ĠDie":8408,"Bundle":8409,".utils":8410,"Ġtrip":8411,"MB":8412,"Ġsoft":8413,"_MODE":8414,"Ġapplicable":8415,"Ġupper":8416,"ERVER":8417,"_al":8418,"_LOG":8419,"Here":8420,"wp":8421,"ĠServer":8422,"ĠClient":8423,"Ġchem":8424,"Scroll":8425,"Ġhighest":8426,"ĠSelect":8427,"Ġ\"@":8428,"ĠWhy":8429,"Sec":8430,"heel":8431,"Operation":8432,"Ġconnected":8433,"irmed":8434,"Ġcitiz":8435,"ĠChe":8436,"Ġforces":8437,"Ġwww":8438,"Root":8439,"ANCE":8440,"Many":8441,"icip":8442,"rgan":8443,"ĠTor":8444,"ĠPress":8445,"ĠMor":8446,"-line":8447,"uled":8448,">\\":8449,"Ġthus":8450,"ĠRegister":8451,"hol":8452,"ĠChinese":8453,"Ġposted":8454,"Ġmagn":8455,"abilities":8456,"Ġdisease":8457,"Ġremains":8458,"ĠProf":8459,"-form":8460,"Ġcin":8461,"organ":8462,"icate":8463,"Ġstress":8464,"]*":8465,"Ġ----------------------------------------------------------------":8466,"_context":8467,"orry":8468,"Ġdied":8469,"mat":8470,"Ġstarts":8471,".Message":8472,"Ġruns":8473,"Ġguide":8474,"Ġwarranty":8475,"entials":8476,"dict":8477,"ĠSize":8478,"uler":8479,"Ġresponsible":8480,"_SET":8481,"Ġcontaining":8482,"ĠPrice":8483,"||":8484,"FS":8485,"Ġemp":8486,"_button":8487,"(uint":8488,"Ġsuff":8489,"pth":8490,"Ġdefinitely":8491,"pute":8492,"Ġmarketing":8493,"ĠWH":8494,"ĠSie":8495,"+=":8496,"OLOR":8497,"Ġconsult":8498,"Ġsigned":8499,"Ġsequence":8500,"lee":8501,"Ġrequirements":8502,"hy":8503,"Express":8504,"MT":8505,"sey":8506,"Ġult":8507,"å®":8508,"elligence":8509,"Ġanaly":8510,"Ġdress":8511,"engine":8512,"ĠGreat":8513,"ĠAndroid":8514,"ĠAlex":8515,"mode":8516,"Dictionary":8517,".Date":8518,"ä½":8519,"VICE":8520,"Ġfamilies":8521,"ĠRussian":8522,"ĠTimes":8523,".call":8524,"$(":8525,"Profile":8526,"Ġfolder":8527,"ches":8528,"Ġlegis":8529,"_row":8530,"unes":8531,"ÙĦ":8532,"Ġ}).":8533,"Assert":8534,"agen":8535,"ĠHand":8536,"Iter":8537,"Ġbiggest":8538,"oreach":8539,"Ġpolic":8540,"Ġpermissions":8541,"Ġshowed":8542,"ĠElement":8543,"Ġtopic":8544,"âĢĶâĢĶ":8545,"road":8546,"ĠBank":8547,"record":8548,"Ġpartners":8549,"ĠRef":8550,"essions":8551,"Ġassess":8552,"UST":8553,"ĠParty":8554,"produ":8555,"LC":8556,"Ġul":8557,".form":8558,"hide":8559,"copy":8560,"UTF":8561,"ĠSOFTWARE":8562,"čĊčĊčĊ":8563,"ĠLin":8564,"una":8565,"ugar":8566,"Ġadministration":8567,"Ġopening":8568,"Ġscan":8569,"Ġcontinued":8570,"component":8571,".sp":8572,"Ġhappens":8573,"ummy":8574,"ĠPR":8575,".File":8576,"ĠDownload":8577,"Loading":8578,"di":8579,"Ġwaiting":8580,"_ADD":8581,"Tab":8582,".querySelector":8583,"Ġeconomy":8584,"ĠFrench":8585,"txt":8586,"Ġfant":8587,"_;Ċ":8588,"Holder":8589,"SH":8590,"Ġnumpy":8591,"Ġstreet":8592,"Ġmale":8593,"\\Model":8594,"anging":8595,"ĠBill":8596,"Ġpreviously":8597,"BI":8598,"ĠSecret":8599,"Ġmist":8600,"ĠField":8601,"ups":8602,"ĠProcess":8603,"Ġkept":8604,"ĠOT":8605,"Ġtraditional":8606,".i":8607,"amin":8608,"Ġhelps":8609,"Any":8610,"origin":8611,"ilters":8612,"ju":8613,"desc":8614,"ĠAccount":8615,"Ġ)čĊ":8616,"ktop":8617,"olly":8618,"Ġfs":8619,"Ġê":8620,"Ġut":8621,"Ġcentral":8622,"(test":8623,".An":8624,"Ġsatisf":8625,"GR":8626,"ĠFull":8627,"Ġheat":8628,"iber":8629,"Ġonto":8630,"mos":8631,"Schema":8632,"Ġfactory":8633,"\".$":8634,"aws":8635,"Statement":8636,"(target":8637,"ĉnew":8638,".be":8639,"Ġguest":8640,"Ġmal":8641,"ARY":8642,"Ġreached":8643,"Ġmouse":8644,"Ġchallenge":8645,"ĉdouble":8646,"ĠTem":8647,"Ġterror":8648,"Ġextract":8649,"_TO":8650,"Ġseparate":8651,"Ġmir":8652,"help":8653,"Ġcapacity":8654,"ĠProperty":8655,"kan":8656,"_create":8657,"ĠLight":8658,".parent":8659,"Ġunderstanding":8660,"Ġeasier":8661,"Ġ|=":8662,"Ġenh":8663,"Ġfat":8664,"Ġprotest":8665,"amm":8666,"_AT":8667,"-of":8668,"ils":8669,"ĠOh":8670,"Ġpsych":8671,"Ġ$.":8672,"inds":8673,"Ġrelative":8674,"shop":8675,"short":8676,"ĠSand":8677,"uestion":8678,"Ġfear":8679,"/ĊĊ":8680,".context":8681,"Ġschools":8682,"Ġserve":8683,"zone":8684,"_db":8685,"Ġmajority":8686,"example":8687,"Ġlang":8688,"ĉĠĠ":8689,"Register":8690,"endo":8691,"Ġprocessing":8692,"_template":8693,"-user":8694,"Ġeg":8695,"COM":8696,"ĠBlue":8697,"iro":8698,"Ġremote":8699,"ĠIT":8700,"#!/":8701,"Ġredistrib":8702,"raz":8703,"ĠSince":8704,"ĠTur":8705,"Background":8706,"===":8707,"Ġreflect":8708,"Ġpros":8709,"cmd":8710,"Ġwhom":8711,"Compat":8712,"ĠAre":8713,"Identifier":8714,"ĠThom":8715,"_port":8716,"gu":8717,"Ġmonitor":8718,"rm":8719,"Ġpatient":8720,"verter":8721,"Ġgain":8722,"-ui":8723,"Inst":8724,"Ġdies":8725,"Area":8726,"_filter":8727,"Ġgrat":8728,"Ġreality":8729,"ordinate":8730,"olved":8731,"Contact":8732,"Ġcompliance":8733,"_or":8734,"ĠVar":8735,"dl":8736,"Ġappend":8737,"GER":8738,"(max":8739,".render":8740,"Ġdynamic":8741,"ordinates":8742,"_options":8743,"_column":8744,"Ġbatter":8745,"space":8746,"La":8747,"ĠSource":8748,"/bin":8749,"Ġdos":8750,"ĠBoard":8751,"ĠThread":8752,"ĠAL":8753,"(config":8754,"ĠMer":8755,"Ġmiles":8756,"_header":8757,"ETHOD":8758,"izz":8759,"Ġbenefit":8760,"Ġintegr":8761,"(current":8762,"ulo":8763,".default":8764,"ĠDiv":8765,"Ġton":8766,"oth":8767,"ervation":8768,"edom":8769,"Ġbaby":8770,"ceived":8771,".top":8772,"riority":8773,"ĠLocal":8774,"riage":8775,"Ġattacks":8776,"Ġhospital":8777,"Ġfemale":8778,"ĠLogin":8779,"ĠFlor":8780,"Ġchain":8781,"ashion":8782,"Texture":8783,"Save":8784,"Ġfarm":8785,".contains":8786,".Test":8787,"Ġknows":8788,"Ġgenerally":8789,"ipeline":8790,"Ġmeant":8791,"encia":8792,"Ġnicht":8793,"Ġcontents":8794,"PM":8795,"chedule":8796,"(line":8797,"CG":8798,"job":8799,"ĠReal":8800,"uer":8801,"firm":8802,"ĠØ":8803,"etro":8804,"\"`Ċ":8805,"Ġspeech":8806,"Ġthr":8807,"foreach":8808,"Ġwarn":8809,"ĉl":8810,"Ġheavy":8811,"<li":8812,"Ne":8813,"Ġinvestigation":8814,"Math":8815,"-title":8816,"Ġchurch":8817,"Ġdespite":8818,"chain":8819,"Ġwhatever":8820,"arian":8821,"fn":8822,"Ġmeta":8823,"})ĊĊ":8824,"UFF":8825,"Ġregarding":8826,"_SUCCESS":8827,"mes":8828,"ĠIntent":8829,"Ġresolve":8830,"poss":8831,"ira":8832,"force":8833,"oice":8834,"Ã¢":8835,"Ġpm":8836,"Ġupdates":8837,"Arr":8838,"ĠÑ":8839,"testing":8840,"Ġtoward":8841,"ntax":8842,"ëĭ":8843,"Ġlisten":8844,"Ġgoals":8845,"InstanceState":8846,"Dr":8847,"Ġrare":8848,"Ġtrail":8849,"Keys":8850,"Cal":8851,"Car":8852,"ĠPeople":8853,"ĉlocal":8854,"classes":8855,"Reference":8856,".forEach":8857,"emb":8858,"activ":8859,"Ġprim":8860,"redict":8861,"Ġrad":8862,"æķ°":8863,".Back":8864,"Ġspread":8865,"Ġclock":8866,"Ġvir":8867,"editor":8868,"Ġefforts":8869,"Ġbranch":8870,"Ġindust":8871,"Ġmotor":8872,"Ġamb":8873,"Ġdatetime":8874,"Ġrencont":8875,"ĠChristian":8876,"ĠAmericans":8877,"full":8878,"Ġfmt":8879,".main":8880,"Ġcaused":8881,"_update":8882,"ĠContent":8883,"ATCH":8884,"Ġbath":8885,"ĠEach":8886,"Ġradio":8887,"achment":8888,"uzz":8889,"Submit":8890,"Ġrestrict":8891,"abin":8892,"ĠLoad":8893,"Ġextension":8894,"Ġessay":8895,"Ġhat":8896,"aviour":8897,"toBe":8898,"\":[":8899,"Ġoffered":8900,"Ġvill":8901,"(double":8902,"æĹ¥":8903,"bc":8904,"_free":8905,"ĠMiss":8906,"ĠBer":8907,"Ġè":8908,"ĠLike":8909,"Ġhelped":8910,".getName":8911,"_AL":8912,"Ġspirit":8913,"ĠApache":8914,"ws":8915,"Ġtherefore":8916,"(params":8917,"_img":8918,"Ġpeace":8919,"Ġincor":8920,"ĠEXPECT":8921,"Ġminor":8922,"ipes":8923,"ĉdata":8924,"selector":8925,"city":8926,"trie":8927,".base":8928,"_frame":8929,"Ġopened":8930,"/json":8931,"LY":8932,"nu":8933,".De":8934,"tf":8935,"margin":8936,".Parse":8937,"Ġpi":8938,"Ġeq":8939,"bd":8940,"Fields":8941,"ĠTree":8942,"Ġban":8943,"istan":8944,"ĊĠĠĠĠĠĠĠĠĊ":8945,"ĉgl":8946,"Ġproduced":8947,"system":8948,"Mark":8949,"_hash":8950,"Ġbg":8951,"Ġconstit":8952,"ĠLeague":8953,"Ġmission":8954,"_format":8955,"([Ċ":8956,"clusion":8957,"!\"":8958,"Ð·":8959,"break":8960,"ĉswitch":8961,"Ġther":8962,"Transform":8963,"Ġfootball":8964,"-link":8965,"route":8966,".auth":8967,"Ġbag":8968,"overs":8969,"Ġenabled":8970,"Ġrac":8971,"(I":8972,"CR":8973,"ancing":8974,"Ġmanaged":8975,"_q":8976,"NGTH":8977,"Ġmac":8978,"ĠAuto":8979,"amente":8980,"Ġ'',":8981,".Append":8982,"Ġpin":8983,".item":8984,"acking":8985,"Ġoccas":8986,"person":8987,"Ġti":8988,".Reg":8989,"Ġhaven":8990,"Ġglass":8991,"Ġ\"</":8992,"ĠSimple":8993,"Print":8994,"Ġsurround":8995,"NO":8996,"ãĢĤĊ":8997,"ĠĠĠĠĠĠĠĠčĊ":8998,"ĠMany":8999,"Ġ\"_":9000,"Ġweekend":9001,"Ġsomew":9002,".params":9003,"small":9004,"ATED":9005,"Ġplugin":9006,"fields":9007,"ĠInitialize":9008,"oon":9009,"atile":9010,"ye":9011,"Ġvous":9012,"LAG":9013,"Ġolder":9014,"Ġgam":9015,"Ġextremely":9016,"Ġhet":9017,"enum":9018,"ĠSET":9019,"xff":9020,"Ġtimer":9021,"/index":9022,"Ġcritical":9023,"Rows":9024,"_argument":9025,"Ġexecute":9026,"Ġshowing":9027,".xml":9028,"-list":9029,"Role":9030,"typename":9031,"_method":9032,"that":9033,"cher":9034,"ĠâĨ":9035,"XT":9036,"Ġthousands":9037,"ĉn":9038,"Ġresp":9039,"_price":9040,"olut":9041,"Ag":9042,"ĠTwo":9043,"Ġbecomes":9044,"Ġhus":9045,".Use":9046,"theme":9047,"urb":9048,"Ġ/*Ċ":9049,"erialize":9050,"ARN":9051,"Ġlose":9052,"Lower":9053,"Ġvel":9054,"Ġdefense":9055,"condition":9056,"Ġbes":9057,"Ġdry":9058,"Ġscroll":9059,".Show":9060,"IEL":9061,"Ð¾ÑĢ":9062,"ĠRest":9063,"Where":9064,"oods":9065,"ĠJes":9066,"Ġwire":9067,"_INFO":9068,"Ġstrings":9069,"gment":9070,"Ġmatches":9071,"Ġelectric":9072,"Ġexcellent":9073,"ĠCouncil":9074,"idade":9075,"Ġwx":9076,"push":9077,"_entry":9078,"Ġtasks":9079,"Ġrich":9080,"sa":9081,"ĠSmith":9082,"UNCTION":9083,"Pointer":9084,"pective":9085,"Ġwidget":9086,"ista":9087,"Ġagency":9088,"Ġsich":9089,"ologies":9090,"Ġtrial":9091,"alysis":9092,".check":9093,"ARK":9094,"ĠonChange":9095,"about":9096,"',$":9097,"(val":9098,"Ġplaced":9099,"_NO":9100,"Ġdan":9101,".equal":9102,"ĉĠĠĠĠĠ":9103,"Ġweather":9104,".game":9105,"Ġdestination":9106,"_USER":9107,"iece":9108,"Ġprovider":9109,".last":9110,"plex":9111,"Note":9112,"/js":9113,"ĠpÃ¥":9114,"Ġplanning":9115,"attribute":9116,"PRO":9117,"atches":9118,"Ġ<-":9119,"Ġseeing":9120,"Ġcancel":9121,"_ind":9122,".keys":9123,"Ġvisual":9124,"ĠCurrent":9125,"ĠCollege":9126,"ĠRock":9127,"Ġagreement":9128,"ĠStore":9129,"oving":9130,"Ġcorner":9131,"ampions":9132,"ISE":9133,"Fin":9134,"Ġprotection":9135,"Ġfi":9136,"Play":9137,"plugin":9138,")}":9139,".frame":9140,"-z":9141,"Ġtransition":9142,"igin":9143,"Ġcandidate":9144,"ĠUnion":9145,"_values":9146,"(map":9147,"cle":9148,"Ġtrend":9149,"wide":9150,"aren":9151,"Loc":9152,"UTH":9153,"ĠBay":9154,"Ġsmaller":9155,"ius":9156,"well":9157,"Ġcriminal":9158,"Ġconflic":9159,"bert":9160,"_INT":9161,"Ġinvestment":9162,"custom":9163,"ĠSession":9164,"_write":9165,"ania":9166,"ĠMass":9167,"_EQ":9168,"_NOT":9169,"Ġviolence":9170,"Argument":9171,"_email":9172,"Ġbelong":9173,"_function":9174,"Ġenemy":9175,"ema":9176,"ĠAddress":9177,".empty":9178,"Ġinner":9179,"ĠContact":9180,"Loader":9181,"<input":9182,"ĠCA":9183,"lot":9184,"Ġpictures":9185,"ĠSupport":9186,"_names":9187,"Layer":9188,"ĠClick":9189,"Sum":9190,"Ã¦":9191,"ĠLook":9192,"uous":9193,"Lib":9194,"Flags":9195,"team":9196,"EP":9197,"hat":9198,"override":9199,"apsed":9200,"Ġlabels":9201,"quis":9202,"ĠStream":9203,"_device":9204,"ĠCommit":9205,"(root":9206,"\"}":9207,".isEmpty":9208,"ĉM":9209,"Ġangle":9210,"ĠBecause":9211,"%%%%%%%%":9212,"Ġaim":9213,"Ġstick":9214,"stmt":9215,"agraph":9216,"answer":9217,"Ġclin":9218,"ĠIsl":9219,".ext":9220,"ĠINT":9221,"Ġstyles":9222,"Ġborn":9223,"Ġscr":9224,"Ġexpand":9225,"Ġraised":9226,"TextBox":9227,"ILL":9228,"------------------------------------------------":9229,"HTTP":9230,">)":9231,"_char":9232,"resource":9233,"Ġepisode":9234,"Ġ'_":9235,"ĠEs":9236,"ĠEarth":9237,"ÂłÂł":9238,"UPDATE":9239,"ĠSou":9240,"uis":9241,"types":9242,"Ġmas":9243,"Ġfav":9244,"Ġconstruct":9245,"_rate":9246,"eras":9247,"Ġ|Ċ":9248,"roperties":9249,"Ġexternal":9250,"Ġapplied":9251,"Ġprefix":9252,"oted":9253,"lers":9254,"Ġcold":9255,"ĠSP":9256,"ĠChurch":9257,"ĠOutput":9258,"losed":9259,"çļ":9260,"ificate":9261,"operation":9262,"herit":9263,"xFF":9264,".env":9265,"_err":9266,"osh":9267,"Direction":9268,"Cancel":9269,"ĠFrank":9270,"Ġfinding":9271,".)ĊĊ":9272,"Ġrouter":9273,"ãĥ»":9274,"ses":9275,"Ġcrow":9276,"=='":9277,"Ġsand":9278,"Ġrid":9279,"iture":9280,"Ġentre":9281,"Ġobserv":9282,"Ġvac":9283,"ðŁ":9284,"-T":9285,"Art":9286,"night":9287,".search":9288,"Ġexchange":9289,"Ġdistrict":9290,".os":9291,"Ġdepartment":9292,"Ġdocuments":9293,"Ġcentury":9294,"ĠNext":9295,"Host":9296,"ĠKIND":9297,"Ġsusp":9298,"-P":9299,"rend":9300,".em":9301,"uite":9302,"isters":9303,"(json":9304,"ĠAnn":9305,"wt":9306,"ati":9307,"ĠHTML":9308,"when":9309,"Directory":9310,"Ġshut":9311,"<a":9312,"edy":9313,"Ġhealthy":9314,"Ġtemperature":9315,"ĠGen":9316,"Ġmetal":9317,"Ġsubmit":9318,"ĠDO":9319,"Ġattract":9320,"Ġ{};Ċ":9321,"ĠWord":9322,"Ġll":9323,"Ġseemed":9324,"ko":9325,"IED":9326,"Ġlabor":9327,".Context":9328,"Ġasset":9329,"you":9330,"Ġcars":9331,"ĠColumn":9332,"ĠrÃ©":9333,"Ġsquare":9334,"ĠNSString":9335,"âĢĿ,":9336,"apes":9337,"...Ċ":9338,"Ġthanks":9339,"(props":9340,"Ġtick":9341,"Ġexperiment":9342,"Ġprison":9343,"tree":9344,"-text":9345,"ĠIOException":9346,"-width":9347,"_STATUS":9348,"fast":9349,"-body":9350,"-header":9351,"Ġguar":9352,"crete":9353,"ĠTim":9354,"Ġclearly":9355,"ĠRepublican":9356,"Ġjustify":9357,"Ð¸ÑĤ":9358,"ĉĠĠĠĠ":9359,"cache":9360,";//":9361,"Ġpresence":9362,"Ġfactors":9363,"Ġemployee":9364,"]))":9365,"Member":9366,"Ġselector":9367,"bor":9368,"ĠMex":9369,"çļĦ":9370,"utex":9371,"_tag":9372,"ailure":9373,"ĠNet":9374,"Ġreli":9375,"EG":9376,"Ġfprintf":9377,"Ġteen":9378,"loss":9379,"Ġleaving":9380,"Delegate":9381,"Ġbeat":9382,"Ġminute":9383,"subscribe":9384,"Ġredistribute":9385,"Constants":9386,"Ġcancer":9387,"/{":9388,"BL":9389,"Ġspan":9390,"ĠChild":9391,"Center":9392,"Ġearth":9393,"YS":9394,"ĠLevel":9395,"Ġsea":9396,".support":9397,".inner":9398,".Item":9399,"illing":9400,"ĠĠĠĠĊĠĠĠĠĊ":9401,"ĠLabel":9402,"ĠEst":9403,"(arg":9404,"boBox":9405,"ĉforeach":9406,"cos":9407,"Failed":9408,"swers":9409,"Editor":9410,"ront":9411,"ĠMP":9412,"expr":9413,"ĠLife":9414,"Ġ??":9415,"Ã¶r":9416,"Ġattend":9417,"ĠQue":9418,"Ġspecies":9419,"-D":9420,"Ġaus":9421,"Struct":9422,"Ġadvantage":9423,"oston":9424,"-block":9425,"initial":9426,"CRE":9427,"Ġtruly":9428,"Ġcompare":9429,"orney":9430,"Ġspect":9431,"Full":9432,"bes":9433,"Ġvisible":9434,"Ġmess":9435,"stances":9436,"Ġcloud":9437,"_version":9438,"Ġfurn":9439,"icago":9440,"LOW":9441,"Ġtraffic":9442,"Ġfol":9443,"rypto":9444,"Ġdeclar":9445,"Ġslot":9446,"ĠExt":9447,"ĠEngland":9448,"ĠUnder":9449,"Ġta":9450,"letter":9451,"Ġofficer":9452,"ĠDonald":9453,"Yes":9454,"_json":9455,"ITableView":9456,"ĠUSE":9457,"mployee":9458,"Ġopinion":9459,"ĠAut":9460,"border":9461,"Ġadvice":9462,"Ġautomatically":9463,"isco":9464,"Ġmm":9465,".vis":9466,"aml":9467,"Ġinitialize":9468,"Ġ({":9469,"Ġ;ĊĊ":9470,"Ġgeneration":9471,"Ġbits":9472,"clipse":9473,"Ġunf":9474,"utors":9475,"plt":9476,"Ġdelta":9477,"estroy":9478,"isis":9479,"<br":9480,"Ġlimitations":9481,"Ġended":9482,"ĠMad":9483,"ilm":9484,"These":9485,"ĠMinister":9486,"Ġchart":9487,"Fragment":9488,"Ġindependent":9489,"Year":9490,"Ġinstr":9491,"Ġtags":9492,"AVE":9493,"ĠArch":9494,"stop":9495,"Progress":9496,"Ġmi":9497,"Ġlearned":9498,"Ge":9499,"Ġhotel":9500,"SM":9501,"TYPE":9502,"Ġcy":9503,"ERSION":9504,"unately":9505,"limit":9506,"sel":9507,"Ġmovies":9508,"Ġsteel":9509,"oz":9510,"gb":9511,"ĠCamp":9512,"site":9513,"ĠLogger":9514,"PLE":9515,"Ð¾Ð´":9516,".right":9517,"ĠCore":9518,"Ġmixed":9519,"step":9520,"Ġputs":9521,"super":9522,"Router":9523,".Http":9524,"lyph":9525,"ĠColors":9526,"Ġandroidx":9527,".str":9528,"Ġinnov":9529,"Ġdeck":9530,"'>Ċ":9531,"apers":9532,"](":9533,"continue":9534,"spec":9535,"ĠRoad":9536,"ASH":9537,"iliar":9538,"Ġcontinues":9539,"Ġappoint":9540,"Ġ#Ċ":9541,"ĠVir":9542,"Ġ?>\"":9543,"Ġbin":9544,"}\",":9545,"going":9546,"each":9547,"BD":9548,"ĠAccess":9549,"Doc":9550,"ĠManagement":9551,"BER":9552,"asket":9553,".getInstance":9554,"Ġestablished":9555,"socket":9556,"INS":9557,"ĉvirtual":9558,"ĉresult":9559,"READ":9560,"_height":9561,"ĠFont":9562,"Ġ();Ċ":9563,"_html":9564,"Ġneighbor":9565,"lor":9566,"Ġgather":9567,"Ġ})ĊĊ":9568,"Ġidentity":9569,"Ġfab":9570,"padding":9571,"ĠRoute":9572,"Enumerable":9573,"Ã´":9574,"Ġforced":9575,"/jquery":9576,".ĊĊĊĊĊĊ":9577,"resents":9578,"_left":9579,".Param":9580,"ĉthrow":9581,"ĠHam":9582,"Ġeventually":9583,"acer":9584,"pub":9585,"Ġtra":9586,"unique":9587,"del":9588,"ĠFlorida":9589,"ĠClean":9590,"xa":9591,"ĠÂ·":9592,"Ġvalidate":9593,"Visual":9594,"Expression":9595,"_func":9596,"member":9597,"ĉh":9598,"trl":9599,"ĉG":9600,"napshot":9601,"ĠPropTypes":9602,"vin":9603,"])ĊĊ":9604,"owl":9605,"ifies":9606,"Ġ$('.":9607,"ĠContext":9608,"ĠToast":9609,".Key":9610,"Ġofficers":9611,"/n":9612,"sn":9613,"undefined":9614,".items":9615,"utow":9616,"amage":9617,"Ġaccounts":9618,"ookie":9619,"Section":9620,"icians":9621,"Ġadvis":9622,"(is":9623,"[:,":9624,"ĠFrance":9625,"Func":9626,"icious":9627,"Ġtok":9628,"Channel":9629,"ĠAD":9630,"_NUM":9631,"Ġtimeout":9632,"lemma":9633,"reme":9634,"uj":9635,".Al":9636,"uclear":9637,"(os":9638,"(\"<":9639,"[Ċ":9640,"fetch":9641,"Ġbal":9642,"Ġguid":9643,"-align":9644,"ĠWrite":9645,"ĠOnce":9646,"utowired":9647,"ODULE":9648,"Ġpitch":9649,"CF":9650,"bytes":9651,"ĠCommission":9652,"Ġincred":9653,"PER":9654,"_response":9655,"ĠLos":9656,"parser":9657,"Ġassume":9658,".Request":9659,"ĠToken":9660,"_position":9661,"Ġnom":9662,"-term":9663,"Ġremaining":9664,"iostream":9665,"Ġpieces":9666,"apy":9667,"ĠLess":9668,"range":9669,"umbn":9670,"prise":9671,"_option":9672,"Impl":9673,"kwargs":9674,"Ġbusinesses":9675,"Alert":9676,"Ġparties":9677,"ĠContainer":9678,"ĠPrivate":9679,"ĠPlan":9680,"Ġregistered":9681,"Ġjour":9682,"acker":9683,"ÐµÐ½Ð¸":9684,"/>":9685,"chat":9686,"sect":9687,"Ġcreation":9688,"olutely":9689,"Ġinstant":9690,"Ġdelivery":9691,"icken":9692,"yes":9693,"ĠFranc":9694,"bling":9695,"enda":9696,"[(":9697,"_range":9698,"ĠĠĠĠĠĠĠĠĠĠĠĠĠĠĠĠĠĠĠĠĠĠĠĠĠĠĠĠĠĠĠĠĠĠ":9699,"Ġschedule":9700,"Conn":9701,"Ġthank":9702,"xd":9703,"Ġhook":9704,"Ġdocumentation":9705,"Parameters":9706,"Hello":9707,"vt":9708,"Ġarticles":9709,"Ġwest":9710,"defined":9711,".select":9712,"okens":9713,"ĠVAL":9714,".file":9715,"reset":9716,"Ġmys":9717,"ĠMA":9718,"]),":9719,"Ġcities":9720,"related":9721,"åĽ":9722,"Ġappeared":9723,"Ġwid":9724,".panel":9725,"ĠIns":9726,".entity":9727,"Ġdecre":9728,"ĠLou":9729,"(time":9730,"ĠThank":9731,".createElement":9732,"Ġmentioned":9733,"ounce":9734,"ĠTry":9735,"ĠWall":9736,"/images":9737,"ĠMenu":9738,"'čĊ":9739,"ĠEr":9740,"Ġcritic":9741,"ĠYear":9742,"(param":9743,"Ġflo":9744,"NN":9745,"ooter":9746,"Ġ];Ċ":9747,"ĠAff":9748,"\"github":9749,"rooms":9750,"Ġhyp":9751,"global":9752,"Ġavec":9753,"æľĪ":9754,"Ġcompletion":9755,"Ġcond":9756,"onymous":9757,"(temp":9758,"Ġstars":9759,"Ġrelevant":9760,"Ġcovered":9761,"Ġelim":9762,"_types":9763,"(bool":9764,"Ġtu":9765,"_exists":9766,"Ġsecure":9767,"Ġstored":9768,"]/":9769,"xF":9770,"ĠController":9771,"Ġmigr":9772,"MI":9773,"ĠDen":9774,"Ġannual":9775,"UIL":9776,"-and":9777,"Ġcrime":9778,"bel":9779,"Ġkitchen":9780,"@g":9781,"_ph":9782,"ournament":9783,"ĠSocial":9784,"ĠSpecial":9785,"logger":9786,"Ġtail":9787,"Ġunknown":9788,"ded":9789,"Ġapprec":9790,"(db":9791,"cf":9792,"Ġassign":9793,"-out":9794,"ĠMont":9795,"dp":9796,"widget":9797,"Ġstone":9798,"-primary":9799,".grid":9800,"Results":9801,"azz":9802,"Ġdaughter":9803,"Ġcurr":9804,"Ġlin":9805,"Ġsouth":9806,"forms":9807,"ĠOUT":9808,"lette":9809,"aks":9810,"igure":9811,"ĠEU":9812,"variable":9813,"Ġbrief":9814,"ĠScott":9815,"Ġconference":9816,"anda":9817,"_lock":9818,"oral":9819,"Ġeine":9820,"ORS":9821,"////////////////////////////////////////////////////////////////":9822,"esso":9823,"Ġris":9824,"Ġgender":9825,"estic":9826,"License":9827,"(out":9828,"Ġms":9829,"See":9830,"Ġwilling":9831,"aze":9832,"Ġsports":9833,"Ġyes":9834,"lu":9835,"Ġpurs":9836,"/javascript":9837,"-pro":9838,"navbar":9839,"_product":9840,"/bootstrap":9841,"Ġdriving":9842,"ĠÄ":9843,"Ġpropos":9844,"ultip":9845,"uplic":9846,".email":9847,"Ġapprox":9848,"(cl":9849,"Ġwear":9850,"Ġreply":9851,"asset":9852,"Ġice":9853,"Ġtx":9854,"kr":9855,"ĠGermany":9856,"ĠGeorge":9857,"Ġcb":9858,"ĉerr":9859,"Move":9860,"Ġpoly":9861,"voice":9862,"}\"":9863,"Ġanimal":9864,"Av":9865,"ĠLocation":9866,"Ġnative":9867,"][\"":9868,"<double":9869,"Ġmais":9870,",int":9871,"Ġprepar":9872,"Ġinterval":9873,"plementation":9874,"_ERR":9875,"Ġbug":9876,">\"":9877,"stat":9878,"Ġ},čĊ":9879,"<span":9880,"Ġfaith":9881,"Ġrom":9882,"prev":9883,"ĠElect":9884,"Find":9885,"Ġgod":9886,"otor":9887,"//----------------------------------------------------------------":9888,"original":9889,"Cpp":9890,"ĠSenate":9891,"Ġpositions":9892,"Ġweapons":9893,"Ġcoff":9894,"Ġpurposes":9895,"pol":9896,"Ġimpress":9897,"Ġanimals":9898,".Entity":9899,"(np":9900,"Ġmurder":9901,"Ġ``":9902,"flag":9903,"Ġsolutions":9904,"ĠActive":9905,"Ġbright":9906,".date":9907,"Ġsitu":9908,"ï¼Ī":9909,".ID":9910,"Ġsie":9911,"),čĊ":9912,"akt":9913,"Space":9914,".dat":9915,".indexOf":9916,"han":9917,"azine":9918,"ĠZe":9919,"Ġcrash":9920,"(/":9921,">=":9922,"Ð±":9923,"iva":9924,".AutoSize":9925,"ĠLat":9926,"_ext":9927,"Initialize":9928,".register":9929,"OPY":9930,"Ġreverse":9931,"_dis":9932,"'][":9933,"Ġprompt":9934,"onto":9935,"ĠJournal":9936,"router":9937,"Ġmysqli":9938,"#else":9939,")\"":9940,"-xs":9941,"lets":9942,"phan":9943,".LE":9944,"Will":9945,"Ġafford":9946,"Ġskill":9947,"-toggle":9948,"NC":9949,"Bind":9950,"TS":9951,"Just":9952,"iteral":9953,"YP":9954,"ĉunsigned":9955,"Ġwind":9956,")):Ċ":9957,"Ġwarning":9958,"ĠWater":9959,"Ġdraft":9960,"Ġcm":9961,"Ġsam":9962,"Ġholding":9963,"zip":9964,"ĠScience":9965,"Ġsupposed":9966,"Gen":9967,"Ġdiet":9968,"<h":9969,"ĠPass":9970,"vi":9971,"Ġhusband":9972,"ï¿½ï¿½":9973,"note":9974,"ĠAbout":9975,"ĠInstitute":9976,"Ġclimate":9977,".Format":9978,"Ġnut":9979,"ested":9980,"Ġapparent":9981,"Ġholds":9982,"fi":9983,"news":9984,"CM":9985,"video":9986,"':'":9987,"DITION":9988,"ping":9989,"Ġsenior":9990,"wa":9991,"-->Ċ":9992,"_default":9993,"ĠDatabase":9994,"rep":9995,"ESS":9996,"nergy":9997,".Find":9998,"_mask":9999,"Ġrise":10000,"Ġkernel":10001,"::$":10002,".Q":10003,"Ġoffering":10004,"decl":10005,"ĠCS":10006,"Ġlisted":10007,"Ġmostly":10008,"enger":10009,"Ġblocks":10010,"olo":10011,"Ġgoverning":10012,"\\F":10013,"Ġconcent":10014,".getText":10015,"Ġmb":10016,"Ġoccurred":10017,"Ġchanging":10018,"Scene":10019,"_CODE":10020,"Beh":10021,"\"The":10022,"Ġtile":10023,"ĠAssociation":10024,"ĉP":10025,"alty":10026,"_ad":10027,"odies":10028,"iated":10029,"Ġprepared":10030,"possible":10031,"Ġmort":10032,"TEST":10033,"Ġignore":10034,"Ġcalc":10035,"Ġrs":10036,"ĠassertEquals":10037,"Ġsz":10038,"ĠTHIS":10039,".\"Ċ":10040,"Ġcanvas":10041,"java":10042,"Ġdut":10043,"VALID":10044,".sql":10045,".input":10046,"Ġaux":10047,"Sup":10048,"Ġartist":10049,"Vec":10050,"_TIME":10051,".stringify":10052,"etween":10053,"ĠCategory":10054,"Ġ[-":10055,"ĠDevExpress":10056,"ĠJul":10057,"Ġring":10058,".ed":10059,"YY":10060,"Let":10061,"TextField":10062,"Ġflat":10063,"_print":10064,"ĠOTHER":10065,"adian":10066,"Ġchecked":10067,"ele":10068,"Align":10069,"standing":10070,"Ġ[],":10071,"Ġlab":10072,"ucky":10073,"ĠChristmas":10074,"(image":10075,".module":10076,"Ġlots":10077,"Ġslightly":10078,"(final":10079,"erge":10080,"è¿":10081,"ĠPolice":10082,"ĠRight":10083,"Ġaward":10084,"ĠOS":10085,"Ġ{}ĊĊ":10086,"Ġptr":10087,"oves":10088,"icated":10089,"ÐµÐ¼":10090,"Ġmanage":10091,"oliday":10092,"Amount":10093,"oolStrip":10094,"tbody":10095,"Nav":10096,"wrap":10097,"BB":10098,"Ġwatching":10099,"arios":10100,"Ġoptional":10101,"_K":10102,"ĠLicensed":10103,".Map":10104,"Timer":10105,"ĠAP":10106,"ĠRev":10107,"(o":10108,",c":10109,"umin":10110,"etailed":10111,"ĠHy":10112,"Ġblank":10113,"agger":10114,"ĠSelf":10115,"()[":10116,".make":10117,"earn":10118,"channel":10119,"<pre":10120,"blem":10121,"_password":10122,"_sp":10123,"icing":10124,"ez":10125,"Ġtheory":10126,"ĠTer":10127,",n":10128,"logo":10129,"ĠHTTP":10130,"()))":10131,".handle":10132,">;Ċ":10133,"World":10134,"Ġpython":10135,"Ġlif":10136,"Ġtrav":10137,"Ġconven":10138,"company":10139,"ĠClub":10140,"Ver":10141,"Btn":10142,"Ġzone":10143,"products":10144,"ĠEduc":10145,"Ġverify":10146,"ĠMil":10147,"ono":10148,"]);ĊĊ":10149,"ENCE":10150,"Ġpacket":10151,"Ġcer":10152,"Ġenumer":10153,"Ġpars":10154,"formed":10155,"Ġoccup":10156,"tre":10157,"Ġexercise":10158,"Day":10159,"_sum":10160,"Ġasking":10161,"aption":10162,"Ġorders":10163,"Ġspending":10164,"ĠERR":10165,".Dis":10166,"ĠUtil":10167,"âĢľI":10168,"\\'":10169,"?)":10170,"/>Ċ":10171,"Ġemot":10172,"Ġinfluence":10173,"ĠAfrica":10174,"atters":10175,"Ùħ":10176,".session":10177,"Ġchief":10178,"ĉĉĉĉĉĉĉĉĉĉĉ":10179,"Ġtom":10180,"cluded":10181,"serial":10182,"_handler":10183,".Type":10184,"aped":10185,"Ġpolicies":10186,"-ex":10187,"-tr":10188,"blank":10189,"merce":10190,"Ġcoverage":10191,"Ġrc":10192,"_matrix":10193,"_box":10194,"Ġcharges":10195,"ĠBoston":10196,"Pe":10197,"Ġcircum":10198,"Ġfilled":10199,"Ġnorth":10200,"ictureBox":10201,"ĉres":10202,"è®":10203,"Ġtermin":10204,"Ġ[âĢ¦":10205,"IRECT":10206,"Ġber":10207,"Ġ\"../../":10208,"retch":10209,".code":10210,"_col":10211,"ĠGovernment":10212,"Ġargv":10213,"ĠLord":10214,"asi":10215,"Exec":10216,"ĉlet":10217,"vertis":10218,"Ġdiscussion":10219,"enance":10220,"outube":10221,"typeof":10222,"Ġserved":10223,"ĠPut":10224,"ĉx":10225,"Ġsweet":10226,"Before":10227,"ategy":10228,".of":10229,"ĠMaterial":10230,"Sort":10231,"ONT":10232,"igital":10233,"Why":10234,"Ġsust":10235,"Ġç":10236,"abet":10237,"Ġsegment":10238,"Ġ[],Ċ":10239,"ĠMuslim":10240,"ĠfindViewById":10241,"cut":10242,"_TEXT":10243,"ĠMary":10244,"Ġloved":10245,"Ġlie":10246,"ĠJO":10247,"Ġisset":10248,"month":10249,"Ġprime":10250,"ti":10251,"ĠCarol":10252,"Use":10253,"ĠPop":10254,"ĠSave":10255,"Interval":10256,"execute":10257,"dy":10258,"ĠIran":10259,"_cont":10260,"ĉT":10261,"Ġphase":10262,"checkbox":10263,"week":10264,"Ġhide":10265,"Ġtil":10266,"Ġju":10267,"Custom":10268,"burg":10269,"/M":10270,"TON":10271,"Ġquant":10272,"Ġrub":10273,"ixels":10274,"Ġinstalled":10275,"Ġdump":10276,"Ġproperly":10277,"(List":10278,"Ġdecide":10279,"apply":10280,"Has":10281,"Ġkeeping":10282,"Ġcitizens":10283,"Ġjoint":10284,"pool":10285,"Socket":10286,"_op":10287,"Ġweapon":10288,"gnore":10289,"ĠExec":10290,"otten":10291,"ĠMS":10292,"Ġ(-":10293,"ĠReview":10294,"Ġexamples":10295,"Ġtight":10296,"!(":10297,"DP":10298,"ĠMessageBox":10299,"Ġphotograph":10300,"URI":10301,"Ã©t":10302,"low":10303,"ĠGrand":10304,".persistence":10305,"Ġmaintain":10306,"Ġnums":10307,"Ġzip":10308,"ials":10309,"ĠGets":10310,"peg":10311,"ĠBuffer":10312,"~~~~":10313,"rastructure":10314,"ĠPL":10315,"uen":10316,"obby":10317,"sizeof":10318,"Ġpic":10319,"Ġseed":10320,"Ġexperienced":10321,"Ġodd":10322,"Ġkick":10323,"Ġprocedure":10324,"avigator":10325,"-on":10326,",j":10327,"ĠAlthough":10328,"ĠuserId":10329,"accept":10330,"Blue":10331,"IColor":10332,"layer":10333,"available":10334,"Ġends":10335,".table":10336,"Ġdataset":10337,"bus":10338,"Ġexplain":10339,"(pro":10340,"ĠCommittee":10341,"Ġnoted":10342,"]:Ċ":10343,"Dim":10344,"stdio":10345,".\",Ċ":10346,"_source":10347,"ĠWeek":10348,"ĠEdge":10349,"Ġoperating":10350,"Ġeste":10351,"ipl":10352,"agination":10353,"Ġproceed":10354,"Ġanimation":10355,".Models":10356,"ĠWatch":10357,"iat":10358,"Ġoppon":10359,"/A":10360,"Report":10361,"Ġsounds":10362,"_buf":10363,"IELD":10364,"Ġbund":10365,"ĉget":10366,".pr":10367,"(tmp":10368,"Ġkid":10369,">ĊĊĊ":10370,"Ġyang":10371,"NotFound":10372,"ÑĨ":10373,"math":10374,"@gmail":10375,"ĠLIMIT":10376,"redients":10377,"Ġvent":10378,"avigate":10379,"Look":10380,"Ġreligious":10381,"Ġrand":10382,"rio":10383,"(GL":10384,"_ip":10385,"uan":10386,"iciency":10387,"ĠChange":10388,">čĊčĊ":10389,"ĠEntity":10390,"Ġrencontre":10391,"ĠRet":10392,"plan":10393,"Ã©n":10394,"BOOL":10395,"uries":10396,"train":10397,"Definition":10398,"============":10399,"zz":10400,"Animation":10401,"ĠOK":10402,"_menu":10403,".bl":10404,"_score":10405,"Ġacad":10406,"(System":10407,"Ġrefresh":10408,"'=>$":10409,".Graphics":10410,"amento":10411,"pid":10412,"tc":10413,"Ġtips":10414,"Ġhomes":10415,"Ġfuel":10416,"âĸ":10417,"_helper":10418,"ĠĠčĊ":10419,"ĠRoom":10420,".Close":10421,"_attr":10422,"ĠMount":10423,"ĠEv":10424,"arser":10425,"_top":10426,"eah":10427,"ĠDelete":10428,"ãĢį":10429,"uke":10430,"Ġusage":10431,"aria":10432,"_dev":10433,"Ġtexture":10434,"Ġconversation":10435,"eper":10436,"Bean":10437,"done":10438,"nonatomic":10439,"ĠSecond":10440,"Ġshooting":10441,"_pre":10442,"Components":10443,"Ġ]ĊĊ":10444,"__,":10445,"stitution":10446,".Char":10447,">();ĊĊ":10448,"Ġpresented":10449,"Ġwa":10450,"oker":10451,"-ĊĊ":10452,"iner":10453,"Ġbecoming":10454,"Ġincident":10455,"Att":10456,"Ġrevealed":10457,"forc":10458,"Ġboot":10459,".page":10460,"Enumerator":10461,"_->":10462,"Photo":10463,"Ġspring":10464,".\",":10465,"ĠDictionary":10466,"BJECT":10467,"Ġlocations":10468,"Ġsamples":10469,"InputStream":10470,"ĠBrown":10471,"Ġstats":10472,"quality":10473,"Ñħ":10474,"-dis":10475,"Ġhelping":10476,"Ġped":10477,"(se":10478,"ĠWho":10479,"alian":10480,"internal":10481,"Ġft":10482,">().":10483,"->{":10484,"Ġmine":10485,"Ġsector":10486,"Ġgro":10487,"Ġopportunities":10488,"ĠÃ¼":10489,"Ġmp":10490,"Ġalleged":10491,"Ġdoubt":10492,"Mouse":10493,"About":10494,"_part":10495,"Ġchair":10496,"Ġstopped":10497,"loop":10498,"entities":10499,"Ġapps":10500,"ansion":10501,"Ġmental":10502,"ĠĠĠĠĠĠĠĠĠĠĠĠĠĠĠĠĠĠĠĠĠĠĠĠĠĠĠĠĠĠĠĠĠĠĠĠĠĠĠĠĠ":10503,"FR":10504,"Ġdefend":10505,"care":10506,"Ġideal":10507,"/api":10508,"urface":10509,"Ġele":10510,"ulator":10511,"ĠRights":10512,"anguages":10513,"Ġfunds":10514,"Ġadapt":10515,"Attributes":10516,"Ġdeploy":10517,"opts":10518,"Ġvalidation":10519,"Ġconcerns":10520,"uce":10521,".num":10522,"ulture":10523,"ila":10524,"Ġcup":10525,"Ġpure":10526,".Fore":10527,"ĠHashMap":10528,".valueOf":10529,"asm":10530,"MO":10531,"Ġcs":10532,"Ġstores":10533,"Ġ************************************************************************":10534,"Ġcommunication":10535,"mem":10536,".EventHandler":10537,".Status":10538,"_right":10539,".setOn":10540,"Sheet":10541,"Ġidentify":10542,"enerated":10543,"ordered":10544,"Ġ\"[":10545,"Ġswe":10546,"Condition":10547,"ĠAccording":10548,"Ġprepare":10549,"Ġrob":10550,"Pool":10551,"Ġsport":10552,"rv":10553,"ĠRouter":10554,"Ġalternative":10555,"([]":10556,"ĠChicago":10557,"ipher":10558,"ische":10559,"ĠDirector":10560,"kl":10561,"ĠWil":10562,"keys":10563,"Ġmysql":10564,"Ġwelcome":10565,"king":10566,"ĠManager":10567,"Ġcaught":10568,")}Ċ":10569,"Score":10570,"_PR":10571,"Ġsurvey":10572,"hab":10573,"Headers":10574,"ADER":10575,"Ġdecor":10576,"Ġturns":10577,"Ġradius":10578,"errupt":10579,"Cor":10580,"Ġmel":10581,"Ġintr":10582,"(q":10583,"ĠAC":10584,"amos":10585,"MAX":10586,"ĠGrid":10587,"ĠJesus":10588,"ĠĠĠĠĠĠĠĠĠĠĠĠĠĠĠĠĠĠĠĠĠĠĠĠĠĠĠĠĠĠĠĠĠĠĠĠ":10589,".DE":10590,"Ġts":10591,"Ġlinked":10592,"free":10593,"ĠQt":10594,"Ġ/**čĊ":10595,"Ġfaster":10596,"ctr":10597,"_J":10598,"DT":10599,".Check":10600,"Ġcombination":10601,"Ġintended":10602,"-the":10603,"-type":10604,"ectors":10605,"ami":10606,"uting":10607,"Ġuma":10608,"XML":10609,"UCT":10610,"Ap":10611,"ĠRandom":10612,"Ġran":10613,".sort":10614,"Ġsorted":10615,".Un":10616,"_PER":10617,"itory":10618,"Ġpriority":10619,"ĠGal":10620,"ĠOld":10621,"hot":10622,"ĠDisplay":10623,"(sub":10624,"_TH":10625,"_Y":10626,"ĠCare":10627,"loading":10628,"Kind":10629,"_handle":10630,",,":10631,"rase":10632,"_replace":10633,".addEventListener":10634,"ĠRT":10635,"Ġentered":10636,"gers":10637,"Ġich":10638,"(start":10639,"/app":10640,"Ġbrother":10641,"Memory":10642,"Outlet":10643,"Ġutf":10644,"prec":10645,"Ġnavigation":10646,"ORK":10647,"Ġdst":10648,"Detail":10649,"Ġaudience":10650,"Ġdur":10651,"Ġcluster":10652,"unched":10653,"Ġ],":10654,"Ġcomfortable":10655,".values":10656,"ĠTotal":10657,"Ġsnap":10658,"Ġstandards":10659,"Ġperformed":10660,"hand":10661,"(\"@":10662,"åŃ":10663,"Ġphil":10664,"ibr":10665,"trim":10666,"Ġforget":10667,"Ġdoctor":10668,".TextBox":10669,"icons":10670,",s":10671,"ĠOp":10672,"Sm":10673,"Stop":10674,"ĉList":10675,"ĉu":10676,"Comment":10677,"_VERSION":10678,".Xtra":10679,"Person":10680,"rb":10681,"LOB":10682,"ĠĠĠĠĠĠĠĠĠĠĠĠĠĠĠĠĠĠĠĠĊ":10683,"ĠCentral":10684,"ICK":10685,"raq":10686,"Ġputting":10687,"Ġmd":10688,"ĠLove":10689,"Program":10690,"Border":10691,"oor":10692,"Ġallowing":10693,"after":10694,"Ġentries":10695,"ĠMaybe":10696,"]).":10697,"ĠShort":10698,")\\":10699,".now":10700,"friend":10701,"Ġprefer":10702,"ĠGPIO":10703,"osis":10704,"ĠGameObject":10705,"Ġskip":10706,"Ġcompetition":10707,"_match":10708,"lications":10709,"_CONT":10710,".groupBox":10711,"Ġals":10712,"\"We":10713,"_eq":10714,"lan":10715,"_search":10716,"ĠMusic":10717,"asis":10718,"Ġbind":10719,"ĠIsland":10720,"rum":10721,"(E":10722,"Ġseat":10723,"Video":10724,"Ġack":10725,"reek":10726,"={()":10727,"Ġrating":10728,"Ġrestaurant":10729,"DEX":10730,"(buf":10731,"pping":10732,"uality":10733,"Ġleague":10734,"Ġfocused":10735,"apon":10736,"$data":10737,"CLUD":10738,"CLUDING":10739,"Ġabsolute":10740,"(query":10741,"Ġtells":10742,"Ang":10743,"Ġcommunities":10744,"Ġhonest":10745,"oking":10746,"Ġapart":10747,"arity":10748,"/$":10749,"_module":10750,"ĠEnc":10751,".an":10752,".Config":10753,"Cre":10754,"Ġshock":10755,"ĠArab":10756,"IENT":10757,"/re":10758,"Ġretrie":10759,"ycler":10760,"isa":10761,"ĠOrgan":10762,".graph":10763,"Ġí":10764,"ĠBAS":10765,"Enum":10766,"Ġpossibly":10767,"ÑĢÐ°Ð":10768,"ĠJapanese":10769,"Ġcraft":10770,"ĠPlace":10771,"Ġtalent":10772,"Ġfunding":10773,"Ġconfirmed":10774,"Ġcycle":10775,"/x":10776,"GE":10777,"Ġhearing":10778,"Ġplants":10779,"Ġmouth":10780,"pages":10781,"oria":10782,"ĠRemove":10783,"_total":10784,"Ġod":10785,"ollapse":10786,"door":10787,"Ġbought":10788,"Ġaddr":10789,"ARCH":10790,"_dim":10791,"dden":10792,"Ġdecades":10793,"REQUEST":10794,"Ġversions":10795,"fire":10796,"Ġmoves":10797,"fb":10798,"Ġcoffee":10799,".connect":10800,"ĠRow":10801,"Ġschema":10802,"Scope":10803,"-Type":10804,"Ġfighting":10805,"Ġretail":10806,"Ġmodified":10807,"TF":10808,"Files":10809,"nie":10810,"_command":10811,"stone":10812,"ĠÑĤ":10813,"_thread":10814,"Ġbond":10815,"ĠDevelopment":10816,"Ġpt":10817,"FORM":10818,"plet":10819,"Ġidentified":10820,"cpp":10821,"Ġcoding":10822,"oked":10823,"ĠMaster":10824,"IDTH":10825,"Ġresidents":10826,"redit":10827,"ĠPhoto":10828,"=-":10829,"unte":10830,"ateur":10831,"_STATE":10832,"ĠSing":10833,"Ġsheet":10834,".val":10835,"orse":10836,"Ġhers":10837,"Ġdetermined":10838,"Common":10839,"Ġwed":10840,"_queue":10841,"PH":10842,"ĠAtl":10843,"cred":10844,"/LICENSE":10845,"Ġmes":10846,"Ġadvanced":10847,".java":10848,".Sh":10849,"Go":10850,"kill":10851,"fp":10852,"_settings":10853,"Ġpal":10854,"Ġtruck":10855,"Ġcombined":10856,"Ġ\"${":10857,"ĠCorpor":10858,"Ġjoined":10859,"ĠJose":10860,"ĠCup":10861,"uns":10862,"estival":10863,"levision":10864,"Ġbroken":10865,"Ġmarriage":10866,"ĠWestern":10867,"Ġrepresents":10868,"ĠTitle":10869,"Ġss":10870,".Ass":10871,"ongoose":10872,"iento":10873,"<>();Ċ":10874,"Ġabsolutely":10875,"Ġsmooth":10876,"TERN":10877,"ĠUnless":10878,"Word":10879,"Ġmerge":10880,"igan":10881,"ĠVol":10882,"Ġnn":10883,".getId":10884,"ĠÐ·":10885,"Ġsexy":10886,"Ġseeking":10887,"Single":10888,".this":10889,"Ġkom":10890,"bound":10891,";\"":10892,"ĠfontSize":10893,"_df":10894,"Ġinjury":10895,"(H":10896,"Ġissued":10897,"_END":10898,":self":10899,"Ġpatch":10900,"Ġleaves":10901,"Ġadopt":10902,"FileName":10903,"ãĢĲ":10904,"Ġexecutive":10905,"ĠByte":10906,"]))Ċ":10907,"Ġnu":10908,"outing":10909,"cluding":10910,"-R":10911,".options":10912,"Ġsubstant":10913,"avax":10914,"ĠBUT":10915,"Ġtechnical":10916,"Ġtwice":10917,"ĠmÃ¡s":10918,"Ġunivers":10919,"yr":10920,"Ġdrag":10921,"ĠDC":10922,"Ġsed":10923,"Ġbot":10924,"ĠPal":10925,"ĠHall":10926,"forcement":10927,"Ġauch":10928,".mod":10929,"notation":10930,"_files":10931,".line":10932,"_flag":10933,"[name":10934,"Ġresolution":10935,"Ġbott":10936,"(\"[":10937,"ende":10938,"(arr":10939,"Free":10940,"(@\"":10941,"ĠDistrict":10942,"PEC":10943,":-":10944,"Picker":10945,"ĠJo":10946,"ĠĠĠĠĠĊ":10947,"ĠRiver":10948,"_rows":10949,"Ġhelpful":10950,"Ġmassive":10951,"---Ċ":10952,"Ġmeasures":10953,"ĠRuntime":10954,"Ġworry":10955,"ĠSpec":10956,"ĉD":10957,"ãĢĳ":10958,"Ġ){Ċ":10959,"Ġworse":10960,"(filename":10961,"Ġlay":10962,"Ġmagic":10963,"ĠTheir":10964,"oul":10965,"stroy":10966,"ĠWhere":10967,"Ġsudden":10968,"Ġdefe":10969,"Ġbinding":10970,"Ġflight":10971,"ĠOnInit":10972,"ĠWomen":10973,"ĠPolicy":10974,"Ġdrugs":10975,"ishing":10976,"('../":10977,"ĠMel":10978,"peat":10979,"tor":10980,"Ġproposed":10981,"Ġstated":10982,"_RES":10983,"Ġeast":10984,"ĠCONDITION":10985,"_desc":10986,"Ġwinning":10987,"folio":10988,"Mapper":10989,"ĠPan":10990,"ĠAnge":10991,".servlet":10992,"Ġcopies":10993,"LM":10994,"Ġvm":10995,"åį":10996,"Ġdictionary":10997,"Seg":10998,"elines":10999,"ĠSend":11000,"Ġiron":11001,"ĠFort":11002,".domain":11003,"Ġdebate":11004,"NotNull":11005,"eq":11006,"acher":11007,"lf":11008,"ĉfmt":11009,"Ġlawy":11010,"ÄŁ":11011,"ĠMen":11012,"Ġtrim":11013,"(NULL":11014,"Ġ!!":11015,"Ġpad":11016,"Ġfollows":11017,"\"][\"":11018,"requ":11019,"ĠEp":11020,".github":11021,"(img":11022,"eto":11023,"('\\":11024,"Services":11025,"umbnail":11026,"_main":11027,"pleted":11028,"fortunately":11029,"Ġwindows":11030,"Ġplane":11031,"ĠConnection":11032,".local":11033,"uard":11034,"}\\":11035,"==\"":11036,"andon":11037,"ĠRoy":11038,"west":11039,"iginal":11040,"emies":11041,"itz":11042,"'):Ċ":11043,"ĠPeter":11044,"Ġtough":11045,"Ġreduced":11046,"Ġcalculate":11047,"Ġrapid":11048,"customer":11049,"Ġefficient":11050,"Ġmedium":11051,"Ġfell":11052,".ref":11053,"ĠCas":11054,"Ġfeedback":11055,"Speed":11056,"(output":11057,"aje":11058,"Ġcategories":11059,"Ġfee":11060,"};":11061,"Ġdeleted":11062,"reh":11063,"Ġproof":11064,"Desc":11065,"Build":11066,"Ġsides":11067,".ArrayList":11068,"-%":11069,"ĠĠĠĠĠĠĠĠĠĠĠĠĠĠĠĠĠĠĠĠĠĠĠĠĠĠĠĠĠĠĠĠĠĠĠĠĠĠ":11070,"Ø±":11071,".match":11072,"Ð»Ð¸":11073,"Ġfeels":11074,"Ġachieve":11075,"Ġclim":11076,"_ON":11077,"ĠCD":11078,"Ġteacher":11079,"_current":11080,"bn":11081,"_PL":11082,"isting":11083,"Enable":11084,"GEN":11085,"Ġtv":11086,"Ġsock":11087,"Ġplays":11088,"Ġdiscount":11089,"ĠKE":11090,"ĠDebug":11091,"Fore":11092,"ĠIraq":11093,"Ġappearance":11094,"Mon":11095,"Ġstyled":11096,"ĠHuman":11097,"iot":11098,"ĠHistory":11099,"Ġsac":11100,"ĠCollection":11101,"Ġrecommended":11102,".Selected":11103,"Ġorganizations":11104,"Ġdiscovered":11105,"cohol":11106,"adas":11107,"ĠThomas":11108,"May":11109,"Ġconserv":11110,"Ġdomin":11111,"ĠFollow":11112,"ĠSection":11113,"ĠThanks":11114,"Username":11115,"Ġrecipe":11116,"Ġwonderful":11117,".sleep":11118,"_if":11119,"ĉĊĉĊ":11120,"orno":11121,"Ġru":11122,"_target":11123,".\"\"":11124,"à¦":11125,"EventArgs":11126,"Ġinputs":11127,"Ġfif":11128,"Ġvision":11129,"cy":11130,"ĠSeries":11131,")(((":11132,"Ġtrading":11133,"Ġmarker":11134,"Begin":11135,"Ġtypically":11136,"Ġcauses":11137,"dropdown":11138,"_DEBUG":11139,"Ġdetect":11140,"country":11141,"!\");Ċ":11142,"ĉR":11143,"appy":11144,"Ġcref":11145,"('<":11146,"\"=>":11147,"ĠLE":11148,"reader":11149,"Ġadministr":11150,"Ãµ":11151,"ucket":11152,"Ġfashion":11153,".char":11154,"izar":11155,"Ġdisable":11156,"Ġsuc":11157,"ĠLive":11158,"issue":11159,"Ġmetadata":11160,"flags":11161,"ĠðŁ":11162,"Ġcommitted":11163,"Ġva":11164,"Ġrough":11165,"Ġ'''Ċ":11166,"Ġhighlight":11167,"_vars":11168,"VO":11169,"Ġencoding":11170,"-Z":11171,"_sign":11172,"$(\"#":11173,"Ġrain":11174,"reatest":11175,"ĠEND":11176,"Selection":11177,"Ġcandidates":11178,"Ġsav":11179,".Empty":11180,"Ġdecisions":11181,"Ġcollabor":11182,"ridge":11183,"feed":11184,"ression":11185,"Ġpersons":11186,"VM":11187,"ega":11188,"_BIT":11189,"According":11190,"acked":11191,"Ġdollars":11192,"_loss":11193,"ĠCost":11194,"}\"Ċ":11195,"Notification":11196,"Ġprostit":11197,"Ġauthority":11198,".rec":11199,"Ġspokes":11200,"ĠToday":11201,"istant":11202,"ĠHead":11203,"âĢĿ.":11204,"ertainment":11205,"cean":11206,"culate":11207,"Ġven":11208,"However":11209,"_arr":11210,"Ġtokens":11211,"Graph":11212,"ĠJud":11213,"ĠVirgin":11214,"ĠSerial":11215,"unning":11216,"Mutable":11217,"agers":11218,".csv":11219,"Ġdeveloping":11220,"Ġinstructions":11221,"Ġpromise":11222,"Ġrequested":11223,"_encode":11224,"/\"":11225,"ĠIcon":11226,"uilt":11227,"-day":11228,"Ġintelligence":11229,".IS":11230,"ĠObservable":11231,"ĠHard":11232,"Bool":11233,"idential":11234,".Anchor":11235,"Ġselling":11236,"CI":11237,"AGES":11238,"tle":11239,"bur":11240,"UFFER":11241,"RY":11242,"Ġbigger":11243,"Ġrat":11244,"Ġfamous":11245,"Ġtypename":11246,"Ġexplained":11247,"}}Ċ":11248,"Ġnuclear":11249,"-N":11250,"Ġcrisis":11251,"ĠEnter":11252,"Ġanswers":11253,"/${":11254,"/pl":11255,"Ġsequ":11256,"_next":11257,"mask":11258,"Ġstanding":11259,"Ġplenty":11260,"ĠCross":11261,"ĉret":11262,"dro":11263,"ĠCast":11264,"=true":11265,"ĠChris":11266,"icio":11267,"ĠMike":11268,"Decimal":11269,"addComponent":11270,"Len":11271,"Ġcock":11272,"Ġ#{":11273,"URN":11274,"<tr":11275,"Ġauthorities":11276,"Resources":11277,"-H":11278,"Bottom":11279,"_qu":11280,"puter":11281,"esterday":11282,"Dispatch":11283,"since":11284,"Ġfamiliar":11285,",i":11286,"VC":11287,"Ġment":11288,",C":11289,"Ġfreedom":11290,"Ġroutes":11291,"ĠBuy":11292,"Ġcommands":11293,"Ġmesh":11294,"/C":11295,"ĠSettings":11296,"-style":11297,"Ġwitness":11298,"Ġcle":11299,"Ġunion":11300,"efault":11301,"aret":11302,"Ġthoughts":11303,"Ġ----":11304,"_process":11305,"_us":11306,"ingly":11307,"UES":11308,"Touch":11309,"ĠÐ¼":11310,"_open":11311,"ĠVec":11312,"Ġreward":11313,".Click":11314,"/:":11315,"Ġnie":11316,"Changes":11317,"Month":11318,"ï¼Ł":11319,"Ġexecution":11320,"Ġbeach":11321,"(Integer":11322,"ĉa":11323,"/'":11324,".FontStyle":11325,"Ġabort":11326,"ĠSingle":11327,"(isset":11328,"Ġdp":11329,"Ġ}}</":11330,"ĠMa":11331,".Rows":11332,"ĠPet":11333,"%)":11334,"rand":11335,"éĢ":11336,"Rule":11337,"Ġhel":11338,"RITE":11339,"Ġquiet":11340,"Ġratio":11341,"ĠCONDITIONS":11342,"osoph":11343,"ĠIL":11344,"Ġadvent":11345,"cap":11346,";</":11347,"ĠUSB":11348,"Driver":11349,"Ġours":11350,"ĠJohnson":11351,".K":11352,"_delete":11353,".q":11354,"ĉstr":11355,"/common":11356,"ĉstring":11357,"ĠPDF":11358,"acts":11359,".Action":11360,"ĠQuery":11361,".response":11362,"ĠGirl":11363,"Ġprocesses":11364,"<Integer":11365,"imo":11366,"Ġadds":11367,"Ġentirely":11368,"Ġwash":11369,"/************************************************************************":11370,"Ġanimated":11371,"Ġprofit":11372,"encing":11373,"/S":11374,"ĠSym":11375,"Ġmanual":11376,"Download":11377,"Ġ(!$":11378,"Ġmotion":11379,"webpack":11380,"-bottom":11381,"Ġgratuit":11382,"PG":11383,"(:,":11384,"Ġera":11385,"Ġho":11386,"ĠJim":11387,"quir":11388,"ĠBASIS":11389,"Ã¡n":11390,"DER":11391,"Ġexpensive":11392,"_co":11393,"Bounds":11394,"Well":11395,"ĠDemocratic":11396,"ĠâĨĴ":11397,".Rem":11398,"_SY":11399,"names":11400,"ĠVi":11401,"Ġisinstance":11402,"\\\">":11403,"Ġ*=":11404,"ĠPS":11405,"Ġdangerous":11406,"[p":11407,"OME":11408,"Other":11409,"ĠStringBuilder":11410,"Points":11411,"heading":11412,"Ġcurrency":11413,"Ġpercentage":11414,"_API":11415,"Ġclassic":11416,"thead":11417,"ĠMO":11418,"FE":11419,"Idx":11420,"await":11421,"ĠÃ¨":11422,"Ġaccident":11423,"Ġvariant":11424,"Ġmyst":11425,"ĠLand":11426,"ĠBre":11427,"Ġharm":11428,"ĠAcc":11429,"Ġcharged":11430,"iones":11431,"Visibility":11432,"arry":11433,"ĠLanguage":11434,"Ġwalking":11435,"\".ĊĊ":11436,"ifer":11437,"Ġleadership":11438,".From":11439,"ynam":11440,"Ġtimestamp":11441,"ipt":11442,"ĠHas":11443,"REFER":11444,"ĠIts":11445,"Ġlistener":11446,"UTE":11447,"_description":11448,"Ġexperiences":11449,"Ġcreates":11450,"RS":11451,"cart":11452,"black":11453,"Ġchoices":11454,"war":11455,"Ġ'''":11456,"Ġordered":11457,"Ġevening":11458,"Ġpil":11459,"Ġtun":11460,"ĠBad":11461,"(app":11462,"random":11463,"Ġexplicit":11464,"Ġarrived":11465,"Ġfly":11466,"Ġeconom":11467,"-mail":11468,"Ġlists":11469,"Ġarchitect":11470,"ĠPay":11471,"Ġds":11472,"ĠSol":11473,"Ġvehicles":11474,"Hz":11475,"-com":11476,"Ġking":11477,"_equal":11478,"ĠHelp":11479,"Ġabuse":11480,"--;Ċ":11481,"Ġextr":11482,"Ġchemical":11483,"ä¿":11484,"Ġorient":11485,"Ġbreath":11486,"ĠSpace":11487,"(element":11488,"wait":11489,"DED":11490,"igma":11491,"Ġentr":11492,"Ġsob":11493,"-name":11494,"Ġaffected":11495,"ika":11496,"Ġcoal":11497,"_work":11498,"Ġhundreds":11499,"Ġpolitics":11500,"subject":11501,"Ġconsumer":11502,"ANGE":11503,"Ġrepeated":11504,"Send":11505,"Ġ#[":11506,"Ġprotocol":11507,"Ġleads":11508,"useum":11509,"Every":11510,"Import":11511,"(count":11512,"Ġchallenges":11513,"Ġnovel":11514,"Ġdepart":11515,"bits":11516,".Current":11517,"Ġ`${":11518,"oting":11519,"(\\":11520,"Ġcreative":11521,"Ġbuff":11522,"Ġintroduced":11523,"usic":11524,"modules":11525,"Are":11526,"-doc":11527,"language":11528,"_cache":11529,"Ġtod":11530,"?></":11531,"omething":11532,"Ġhun":11533,"åº":11534,"aters":11535,"Intent":11536,"Ġimplemented":11537,"ĠCase":11538,"Children":11539,"Ġnotification":11540,"Renderer":11541,"Wrapper":11542,"Objects":11543,"tl":11544,".Contains":11545,"Plugin":11546,".row":11547,"Ġforg":11548,"Ġpermit":11549,"Ġtargets":11550,"ĠIF":11551,"Ġtip":11552,"sex":11553,"Ġsupports":11554,"Ġfold":11555,"photo":11556,"},čĊ":11557,"Ġgoogle":11558,"$('#":11559,"Ġsharing":11560,"Ġgoods":11561,"vs":11562,"ĠDan":11563,"Rate":11564,"ĠMartin":11565,"Ġmanner":11566,"lie":11567,".The":11568,"Internal":11569,"ĠCONTR":11570,"Mock":11571,"RIGHT":11572,"Ġ'{":11573,"Ġcontrols":11574,"Mat":11575,"Ġmand":11576,"Ġextended":11577,"Ok":11578,"Ġembed":11579,"Ġplanet":11580,"ĠNon":11581,"-ch":11582,")\",":11583,"epar":11584,"Ġbelieved":11585,"ĠEnvironment":11586,"ĠFriend":11587,"-res":11588,"Ġhandling":11589,"nic":11590,"-level":11591,"scri":11592,"Xml":11593,"BE":11594,"ungen":11595,"Ġalter":11596,"[idx":11597,"Pop":11598,"cam":11599,"Ġ(((":11600,"Ġshipping":11601,"Ġbattery":11602,"iddleware":11603,"MC":11604,"Ġimpl":11605,"otation":11606,"ĠLab":11607,"<form":11608,"ĉname":11609,"ĠGames":11610,"ray":11611,"Extra":11612,"Two":11613,"(player":11614,"ĠLes":11615,"Â°":11616,"Ġcharset":11617,"Ġjourney":11618,"eting":11619,"æĺ":11620,"âĶ":11621,"çĶ¨":11622,"Ġdin":11623,"Ġperman":11624,"Ġsolve":11625,"Ġlaunched":11626,"Ġnine":11627,"Ġsending":11628,"Ġtelling":11629,".password":11630,"ĠMatrix":11631,"eric":11632,"Ġgrab":11633,".u":11634,"ĠLibrary":11635,"Ġdebt":11636,"INK":11637,".findViewById":11638,"Ġfrequency":11639,".ad":11640,"_TEST":11641,"Ġnegot":11642,"ĠAfrican":11643,"sender":11644,"Å¡":11645,"Global":11646,"Ġexperts":11647,"++)čĊ":11648,"Ġdepending":11649,"gray":11650,"Ġjudge":11651,"Ġsentence":11652,"losure":11653,"Ac":11654,"Ġtrace":11655,"Edge":11656,"Ġfriendly":11657,"Ġconcerned":11658,"blog":11659,"Ġclaimed":11660,"}'":11661,"integer":11662,"_tree":11663,"ĉcontinue":11664,"xi":11665,"Ġaccepted":11666,"_one":11667,"ĠEducation":11668,"ublished":11669,"gon":11670,"appoint":11671,"outs":11672,"Ġmining":11673,"Ġsongs":11674,"Ġherself":11675,"Ġgranted":11676,"Ġpassion":11677,"ĠLake":11678,"Ġloan":11679,"uent":11680,"chant":11681,"Ġdetailed":11682,"except":11683,"_cmd":11684,"ĠHE":11685,"Related":11686,"zt":11687,"'},Ċ":11688,"Ġspecifically":11689,"Static":11690,"Ġcarried":11691,"ANS":11692,"\\\":":11693,"Created":11694,"Ġcul":11695,"]-":11696,"_api":11697,"FP":11698,"Ġsitting":11699,"Ġ\"\")":11700,"ĉgoto":11701,"ĠEqu":11702,"Ġassault":11703,"kins":11704,"ancer":11705,"ogen":11706,"Ġvoters":11707,"ĠProt":11708,"Descriptor":11709,"ãĥ¼":11710,".Assert":11711,"bsites":11712,"oster":11713,"-menu":11714,"Ġarms":11715,".Client":11716,".background":11717,"avity":11718,"Ġvul":11719,"_MASK":11720,"Ġhousing":11721,"Ġbear":11722,"_iter":11723,"pired":11724,"Ġmarkets":11725,"ĠStudent":11726,"Ġticket":11727,"Ġmillions":11728,"flater":11729,")=":11730,"Ġrecover":11731,"ĠForce":11732,"ĠBoth":11733,"Ġvictim":11734,"ĠDisc":11735,"report":11736,"Ġfourth":11737,"ĠAssembly":11738,"/user":11739,"NullOr":11740,"textarea":11741,"Ġath":11742,"Ġ([":11743,"Ġchannels":11744,"ĠJustice":11745,"choice":11746,"LOBAL":11747,"exec":11748,"emale":11749,"Ġelem":11750,"_le":11751,"Ġresponsibility":11752,"ĠTw":11753,"ICATION":11754,"Ġelseif":11755,"Ġfo":11756,"asts":11757,"Ġtreated":11758,"sen":11759,"ĠVict":11760,"sumer":11761,"_BASE":11762,"Ġast":11763,">{{":11764,"ĠResource":11765,"ĠStandard":11766,"ĠPrem":11767,"updated":11768,"ivalent":11769,"Ġassets":11770,"_temp":11771,"Ġinterests":11772,"Ġhardware":11773,"ĠRom":11774,"ĠShare":11775,"Ġ''Ċ":11776,"Ġ*,":11777,"ĠTake":11778,"ĠImages":11779,"_CHECK":11780,"(typeof":11781,"ĠJun":11782,"\\<^":11783,"Ġliqu":11784,"Ġworst":11785,"ymbols":11786,"ĉĉĉĠĠĠ":11787,"Ġdrivers":11788,"ĠDocument":11789,"eno":11790,"ĠTechnology":11791,"Ġapproved":11792,"umps":11793,"Ġsnow":11794,"formance":11795,"_ASSERT":11796,"uits":11797,"ÙĨ":11798,"Ġdifferences":11799,".Visible":11800,"ĉĉĉčĊ":11801,"ĠPs":11802,"_fetch":11803,"Ġtodo":11804,".',Ċ":11805,"Ġsel":11806,"urers":11807,"invalid":11808,"Ġtweet":11809,"VEL":11810,"Ġresearchers":11811,"Ġsprintf":11812,"ĠRO":11813,"Ġpel":11814,".Trans":11815,"Ġillegal":11816,"dialog":11817,"smarty":11818,"lg":11819,"_MIN":11820,"Ġhero":11821,"final":11822,"Ġpp":11823,".Le":11824,"Ġci":11825,"ĉRT":11826,"Ġsuggested":11827,"pdf":11828,"aching":11829,"ĠRo":11830,"ĠProperties":11831,"ĠSi":11832,"Ġbuying":11833,"Ġmu":11834,"Ġlands":11835,"ifiers":11836,"ĠFILE":11837,"ROUP":11838,"Ġholder":11839,"ĠSon":11840,"Ġsympt":11841,".route":11842,")?":11843,"Ġargc":11844,"Ġfort":11845,"Ġcasino":11846,"_category":11847,"Ġforum":11848,"prefix":11849,"apture":11850,"Tube":11851,"ems":11852,"imize":11853,"Ġnue":11854,"aus":11855,"course":11856,"ATOR":11857,"()),":11858,"Advertis":11859,"INGS":11860,"Ġacknow":11861,"ĠKorea":11862,"pling":11863,"Ġworker":11864,"PLIED":11865,"hal":11866,"ĠRichard":11867,"Elements":11868,"ĉĉĉĠ":11869,"star":11870,"Ġrelationships":11871,"Ġcheap":11872,"ACH":11873,"ĠXML":11874,",&":11875,"ĠLouis":11876,"Ġride":11877,"_FAIL":11878,"Ġchunk":11879,"[s":11880,"_OUT":11881,"Ġchosen":11882,"_[":11883,"/(":11884,"ĠJeff":11885,"_sl":11886,"priv":11887,"ĠCanadian":11888,"Ġunable":11889,"_FLAG":11890,"Ġnos":11891,"high":11892,"Ġlift":11893,"fun":11894,"(){":11895,"elly":11896,"yclerView":11897,"_as":11898,"_LIST":11899,"Ġradi":11900,".getValue":11901,"ĠAngeles":11902,"ĠSpan":11903,"_instance":11904,"itors":11905,"Ġmigration":11906,"AK":11907,"Oh":11908,"Â®":11909,".selected":11910,"ĠGT":11911,"Ġadvance":11912,"ĠStyle":11913,".DataGridView":11914,"ection":11915,"Ñİ":11916,"pio":11917,"rog":11918,"Ġshopping":11919,"ĠRect":11920,"Illuminate":11921,"OU":11922,"ĉarray":11923,"Ġsubstantial":11924,"Ġpregn":11925,"Ġpromote":11926,"IEW":11927,".Layout":11928,"Ġsigns":11929,"/.":11930,"Ġletters":11931,"Board":11932,"ctrl":11933,"\"\\":11934,"ĠJones":11935,"Ġvertex":11936,"Ġja":11937,"Ġaffili":11938,"Ġwealth":11939,"ĉdefault":11940,"Ġsignificantly":11941,"Ġec":11942,"Ġxs":11943,"actual":11944,".per":11945,"_step":11946,"anvas":11947,"mac":11948,"Ġtransl":11949,"ĠĠĠĠĠĠĠĠĠĠĠĠĠĠĠĠĠĠĠĠĠĠĠĠĠĠĠĠĠĠĠĠĠĠĠĠĠĠĠĠĠĠĠĠĠĠĠĠĠĠĠĠĠĠĠĠĠĠĠ":11950,"Iterator":11951,"Ġoch":11952,"agnostic":11953,"ĠDuring":11954,"ĠDEFAULT":11955,"Ġtill":11956,"Ġsignature":11957,"Ġbird":11958,"ĠOl":11959,"ĠIr":11960,"HS":11961,"avatar":11962,"ESSAGE":11963,"Ġelev":11964,"Ġmt":11965,"ĠNav":11966,"Ġrelax":11967,"Ġplate":11968,"ITEM":11969,"(date":11970,".not":11971,"Ġgrade":11972,"Ġ}),Ċ":11973,"?\"ĊĊ":11974,"iences":11975,"High":11976,"ĠDIS":11977,"disabled":11978,"QUI":11979,"Ġnoise":11980,"aux":11981,"ĠUP":11982,"osa":11983,"Ġvoc":11984,"Ġ))":11985,"ocom":11986,"_OFF":11987,"ĠDb":11988,"Lock":11989,".eclipse":11990,",d":11991,"ĠDraw":11992,"Ġ\"(":11993,"Ġvisited":11994,"ĠâĪ":11995,"Ġsucceed":11996,"Ġimpossible":11997,"aire":11998,"ĠTurn":11999,"Ġdish":12000,"FG":12001,"Ġsensor":12002,"ANN":12003,"aba":12004,"Ġsurg":12005,"]);čĊ":12006,"Ġfp":12007,"_an":12008,"-J":12009,"-G":12010,"ĠJob":12011,"Convert":12012,"ĠKEY":12013,"Ġauthors":12014,"_server":12015,"\\r":12016,"Ġ-*-":12017,"flex":12018,"Ġsoc":12019,"Ret":12020,"Ġsalt":12021,"ĠâĢ¦ĊĊ":12022,"ĠClear":12023,"(page":12024,"-danger":12025,"Ġrooms":12026,"conv":12027,"#{":12028,".op":12029,"ĠArea":12030,"_SC":12031,"hen":12032,"Ġbegins":12033,"-y":12034,"Ġexcited":12035,"Ġignored":12036,"Ġbonus":12037,"student":12038,"ĠMember":12039,"Ġrelatively":12040,"ĠLow":12041,"ĠProdu":12042,"ateway":12043,"posure":12044,"Ġthick":12045,"aniel":12046,"(view":12047,"ĠCrush":12048,"Extension":12049,"Il":12050,"eed":12051,"LOC":12052,".im":12053,".Items":12054,"Ġconflict":12055,".prevent":12056,"ĠonCreate":12057,"uv":12058,"iser":12059,"Ġwave":12060,"Mar":12061,"ĠCommunity":12062,"iche":12063,"ĠNothing":12064,"[m":12065,"ĠLee":12066,"riends":12067,"Ã¨re":12068,"!!!":12069,"anz":12070,".result":12071,"ĠSK":12072,"_PARAM":12073,"Ġdemocr":12074,"BackColor":12075,".exists":12076,"\"It":12077,"(options":12078,"razy":12079,"aser":12080,"\\Database":12081,"alendar":12082,"_ass":12083,";}Ċ":12084,"vertex":12085,"inecraft":12086,"Warning":12087,"argo":12088,"Ġactor":12089,"ĠInstead":12090,"ĠUsing":12091,"Self":12092,"@interface":12093,"Ġspeaking":12094,"ĠParis":12095,"ĠLICENSE":12096,".node":12097,"ĠFood":12098,"EIF":12099,"ĠBi":12100,".Start":12101,"ĠIB":12102,"Ġuniversity":12103,"ĠHeader":12104,".product":12105,"Copy":12106,"etc":12107,"rical":12108,"Ġ>>>":12109,"books":12110,"Ġalgorithm":12111,"Ġ'__":12112,"(javax":12113,"Ġnumerous":12114,"Share":12115,"Have":12116,"Ġrecru":12117,"Ġprove":12118,".substring":12119,"health":12120,"ÐµÐ»":12121,"Ġdecimal":12122,"Ġcommission":12123,"scription":12124,"xC":12125,"Ġsummary":12126,"atted":12127,"Ġcloser":12128,"finished":12129,"()){Ċ":12130,"ĠWood":12131,"_fields":12132,"ku":12133,"_items":12134,"Flag":12135,"Ġconfidence":12136,"ĠFederal":12137,"dux":12138,"Ġcompat":12139,"Ġvertical":12140,"Ð¹":12141,"Ã¨s":12142,";\">Ċ":12143,"_manager":12144,"()))Ċ":12145,"IDE":12146,":\",":12147,"__Ċ":12148,"ĠWay":12149,"ÑĪ":12150,"Temp":12151,"ĠSTR":12152,"ritten":12153,"Sync":12154,"ĠAV":12155,"ĠCEO":12156,"ĠGuid":12157,"Ġenvironmental":12158,"Ġcorresponding":12159,"ĉconsole":12160,"Ġjustice":12161,"ĠJS":12162,"Ġlived":12163,"gar":12164,"ĠGraph":12165,"ĠStat":12166,"ĠiPhone":12167,".al":12168,"ĠHD":12169,"Ġoccur":12170,"Ġthreshold":12171,"Ġonclick":12172,"REG":12173,".GraphicsUnit":12174,"Meta":12175,"Å¾":12176,"Ġcum":12177,".gnu":12178,"Ã«":12179,"Ġobtained":12180,"Ġcomplaint":12181,"Ġeating":12182,"Ġtar":12183,"_task":12184,"Ġopts":12185,"(to":12186,"Pass":12187,"Ġplastic":12188,"tility":12189,"ĠWin":12190,".preventDefault":12191,"pile":12192,"ĠGar":12193,"Ġquantity":12194,"_last":12195,"Ġgreatest":12196,"Dao":12197,"_DIS":12198,"ĠUsed":12199,"ĠHP":12200,"riting":12201,"SION":12202,"blue":12203,"domain":12204,"Ġscores":12205,"Normal":12206,"_admin":12207,"ĠASSERT":12208,"Then":12209,"***":12210,"dist":12211,"lon":12212,"Ġhate":12213,"shal":12214,"ImageView":12215,"database":12216,"Ġpand":12217,"Ġlogic":12218,"=false":12219,"bg":12220,"ĠConfiguration":12221,"Ġnur":12222,"OG":12223,"Ġmarried":12224,":+":12225,"Ġdropped":12226,"Ġregistration":12227,"Ð¾Ð¼":12228,"ultiple":12229,"izers":12230,"shape":12231,".copy":12232,"Ġwearing":12233,"ĠCath":12234,"Ġdedicated":12235,"Ġ...Ċ":12236,"Ġadvoc":12237,"ĠFamily":12238,"Ġstatements":12239,"ematic":12240,"ampionship":12241,"Ġmotiv":12242,"ĠHave":12243,"Ġblow":12244,"Job":12245,"cert":12246,"_vector":12247,"install":12248,"ĠCOPY":12249,"embed":12250,"DIR":12251,"ĠSpring":12252,"Ġexhib":12253,"cdn":12254,"ĠComment":12255,"ĠOptional":12256,".player":12257,"ĠDark":12258,"(pos":12259,"ĠShould":12260,"Ġcentre":12261,"ĠGuard":12262,"Ã³w":12263,"Ġtrouble":12264,"ENER":12265,"(unsigned":12266,"_service":12267,"Ġns":12268,"uling":12269,"ĠMexico":12270,"ĠNY":12271,"mysql":12272,"Ġlic":12273,"åľ":12274,"Mr":12275,"-fl":12276,"ĠCustomer":12277,"idi":12278,"Ġ?>ĊĊ":12279,"rible":12280,"ĠÐ¿ÑĢ":12281,"Ġsizes":12282,"_STRING":12283,"validation":12284,"ĠJon":12285,"(Http":12286,"addClass":12287,"Nodes":12288,"Ġfragment":12289,"Ġspoke":12290,"Ġwaste":12291,"Join":12292,"Ġillustr":12293,"eli":12294,"cient":12295,"Ġaid":12296,"Ġprosec":12297,"'){Ċ":12298,"Ġpassing":12299,"Ġfaces":12300,"Shape":12301,"_Z":12302,"iti":12303,"Ġalle":12304,"Ġrobot":12305,"ĠĠĠĠĠĠĠĊ":12306,"ĠSpe":12307,"Ġreceiving":12308,"ĠDetails":12309,"Ġ\")":12310,"mg":12311,"_REF":12312,"Ġcomparison":12313,"*,":12314,"ĠFound":12315,"_session":12316,"(U":12317,"/F":12318,"Ġxxx":12319,"Network":12320,"ders":12321,"Ġcapture":12322,"Ġcorre":12323,"ĠLtd":12324,"ĠAdv":12325,"[@":12326,"Ġclip":12327,"Mill":12328,"ĠProfile":12329,"Ġendif":12330,"Ġoblig":12331,"describe":12332,".element":12333,"riterion":12334,"LD":12335,"ered":12336,"Ġfavour":12337,"score":12338,"ĠFilter":12339,"attributes":12340,"Ġchecks":12341,"Inflater":12342,"ĠPlus":12343,"Ġscientific":12344,"Ġprivacy":12345,"Head":12346,"Ġfeat":12347,"Ġdegrees":12348,"ĠPale":12349,";\">":12350,"Ġfilms":12351,"ĠAudio":12352,"ĠTag":12353,"ĠEnergy":12354,"itar":12355,"parator":12356,"Ġfellow":12357,"Ġevt":12358,"ĠTri":12359,"ĠDAM":12360,"cloud":12361,"ĠPassword":12362,"ĠDemocrats":12363,"ĠAcad":12364,"$lang":12365,"Ġreb":12366,"())ĊĊ":12367,"Ð½Ñĭ":12368,"ĠBur":12369,"readcr":12370,"Ġhex":12371,"Console":12372,"ctl":12373,"ousel":12374,"ĠWilliam":12375,"Ġaz":12376,"_PORT":12377,"Ġpractices":12378,"Ġanywhere":12379,"ĠPosition":12380,"Ġ->Ċ":12381,"iams":12382,".username":12383,"placeholder":12384,"Ġoder":12385,"ĠSecretary":12386,"ĠiT":12387,"mond":12388,"events":12389,"?âĢĿ":12390,".Sub":12391,"Ġattached":12392,"ĠnÃ£o":12393,"Ġestate":12394,".action":12395,"Ġfigures":12396,"Ġ});čĊ":12397,"Ġsubscri":12398,".tag":12399,"nam":12400,".plot":12401,"noon":12402,"liament":12403,"Character":12404,".tab":12405,"Ġwinter":12406,"ĠVariable":12407,"Ġtrees":12408,"Ġproud":12409,"(V":12410,"_load":12411,"Ġhier":12412,"ĠEcon":12413,"Ġfd":12414,"Ġvictims":12415,"Rest":12416,"iana":12417,"Ġfake":12418,".Println":12419,"Ġstrlen":12420,"Ġsad":12421,"Ġble":12422,"Prot":12423,"Ġbuttons":12424,"Ġtelevision":12425,"Ġlogo":12426,"extension":12427,"ĉj":12428,"stein":12429,"aciones":12430,"Ġ\"\"\"ĊĊ":12431,"Ġsimp":12432,"Ġrecorded":12433,"Ġbrings":12434,"Ġprincipal":12435,"Ġfees":12436,"(source":12437,"kdir":12438,"Ġutils":12439,"Ġcorrectly":12440,"fil":12441,"Ġwel":12442,"Pair":12443,"-button":12444,"scale":12445,"verify":12446,"[c":12447,"Ġ---":12448,"Ġescape":12449,"ikes":12450,"LowerCase":12451,"ician":12452,"Ġchapter":12453,"ĠTYPE":12454,"Ġshadow":12455,"Ġawesome":12456,"WE":12457,"elif":12458,"Ġlambda":12459,"Ġdistinct":12460,"Ġbare":12461,"-off":12462,"Ġcolour":12463,".appendChild":12464,"olec":12465,"aga":12466,".fill":12467,"ĉsuper":12468,"Ġadj":12469,"(position":12470,".getItem":12471,"Short":12472,"Ġtotally":12473,"VD":12474,"ĠTre":12475,"_ep":12476,"vements":12477,"ĠSolution":12478,"Ġfundament":12479,"Follow":12480,"Ġfacility":12481,"Ġhappening":12482,"OF":12483,".textBox":12484,"Span":12485,"ĠÂ«":12486,"iden":12487,"Ġexceed":12488,"(parent":12489,"Ġcp":12490,"ç»":12491,"Ġhasn":12492,"Ġpri":12493,"Ġconsequ":12494,"nen":12495,"ĠINTO":12496,"Ignore":12497,"ĠFuture":12498,"Ġcarbon":12499,"ĠSteel":12500,"fmt":12501,"okie":12502,"Ġspl":12503,"(title":12504,"-info":12505,"Ġdeals":12506,"Ġfixture":12507,"ea":12508,"Div":12509,"Ġtested":12510,"_return":12511,")ĊĊĊĊ":12512,"upported":12513,"ĠCook":12514,"Ġpaying":12515,"ĠIll":12516,"Ġarrested":12517,"ĠPrime":12518,"_callback":12519,">,Ċ":12520,"driver":12521,"Once":12522,"abb":12523,"_bytes":12524,"ĠSets":12525,"(Object":12526,"Ġcc":12527,"Ġshell":12528,"alo":12529,");//":12530,"(log":12531,"ctors":12532,")</":12533,"Ġneighborhood":12534,"ailability":12535,"vol":12536,"Ġyouth":12537,"Ġtechniques":12538,"ĠSchema":12539,"uh":12540,"mente":12541,"Ġrepository":12542,"imm":12543,"Ġcookie":12544,"JS":12545,"ovies":12546,":{":12547,"Complete":12548,"Since":12549,"Ġlaugh":12550,"_BO":12551,"enable":12552,"ĠDoes":12553,"ĠWalk":12554,"what":12555,"kes":12556,"Ġmultip":12557,"iments":12558,"eur":12559,"Ġvictory":12560,"Generator":12561,"ĠMos":12562,"rovers":12563,"Ġcompute":12564,"Ġproviders":12565,"ĠMedic":12566,"LP":12567,"_CONFIG":12568,"Ġveter":12569,"sters":12570,"_window":12571,"umeric":12572,"ĉĉĉĉĉĊ":12573,".Response":12574,"Ġreplaced":12575,".root":12576,"-free":12577,"-container":12578,"Ġmatching":12579,"ĠEditor":12580,"=${":12581,"ĠSaf":12582,"Ġsind":12583,"(buffer":12584,"åĩ":12585,".edu":12586,")];Ċ":12587,"ĠNFL":12588,"aya":12589,"Ġdogs":12590,"Ġdesire":12591,"ĠMiddle":12592,"Cart":12593,"Theme":12594,"Ġmob":12595,"Ġdisplayed":12596,"igit":12597,"Ġadults":12598,"\"\"\"":12599,"Ġdelivered":12600,"visible":12601,"\":{Ċ":12602,"<<<":12603,"ĠGO":12604,"scroll":12605,"xE":12606,"Ġassigned":12607,"ĠBool":12608,"Ġwp":12609,"Ġcombat":12610,"ĠHaw":12611,".-":12612,"Ġsupporting":12613,".Content":12614,"ircraft":12615,"Ġspin":12616,"ĠCR":12617,".my":12618,"à¥":12619,"tpl":12620,"Ġspaces":12621,"?,":12622,"ĠSyria":12623,"Ġpatterns":12624,"-box":12625,"Ġframework":12626,"/%":12627,"(long":12628,"Ġteaching":12629,"ARNING":12630,"_keys":12631,"Ġtables":12632,"UNC":12633,"inations":12634,"-weight":12635,"radio":12636,"ĠPac":12637,".server":12638,".CharField":12639,"ring":12640,"Ġquote":12641,"anna":12642,"Ġwerden":12643,"Ġcream":12644,"Ġmachines":12645,"-k":12646,"Ġstim":12647,"ĠStock":12648,"rick":12649,"Ġimportance":12650,"rx":12651,"Ãµes":12652,"ÙĪ":12653,"Ġstroke":12654,"agra":12655,"Ġtaste":12656,"ĠDEBUG":12657,"Thanks":12658,"ĠRequired":12659,"ova":12660,"Media":12661,"ĠsiÄĻ":12662,"(base":12663,"posts":12664,"ĠfileName":12665,"Checked":12666,"Ġinterrupt":12667,"Ġ()Ċ":12668,"python":12669,"pair":12670,"Ġcircle":12671,"Ġiniti":12672,"_stream":12673,"Ġcompreh":12674,"learn":12675,"Public":12676,"Ġhumans":12677,"Ġbringing":12678,"ographic":12679,"_layer":12680,"-like":12681,"upportInitialize":12682,"idebar":12683,"Ġvotes":12684,"Ġdesired":12685,"Mask":12686,"Ġrelation":12687,".Instance":12688,"Help":12689,"Ġinspir":12690,"ĠMono":12691,"ViewModel":12692,"ometimes":12693,"ĠbackgroundColor":12694,"Ġrotation":12695,"Ġmari":12696,"/test":12697,"INSERT":12698,"Star":12699,"phy":12700,"Ids":12701,"_GET":12702,"Ġincreases":12703,"_close":12704,"_FORM":12705,"Ġ[âĢ¦]ĊĊ":12706,"aza":12707,"TEXT":12708,"ĠÃ¤":12709,"ĠVan":12710,"Ġlights":12711,"ĠGuide":12712,"Ġdates":12713,".Command":12714,"aman":12715,"Ġpaths":12716,".edit":12717,"ĉadd":12718,"dx":12719,"Ġreaction":12720,"ĠBeach":12721,".getMessage":12722,"Environment":12723,"interest":12724,"Ġminister":12725,"Ġreaders":12726,"ĉF":12727,"Ġdomestic":12728,"Ġfiled":12729,"City":12730,"Ġmapping":12731,"ĠDES":12732,"Ġrepair":12733,"tics":12734,"ixture":12735,"Ġnombre":12736,".ISupportInitialize":12737,"zo":12738,".IsNullOr":12739,"ĠCarolina":12740,"ĠDer":12741,"ĠEVENT":12742,"Ġgest":12743,"Ġhist":12744,"resources":12745,"Ġorphan":12746,".Are":12747,"ĠInvest":12748,"REFERRED":12749,".Logger":12750,"ĠRoman":12751,"Ġcultural":12752,"feature":12753,"pts":12754,"bt":12755,"Ġdot":12756,"Ġdiam":12757,"uspend":12758,"_access":12759,"(){čĊ":12760,"Ġsurprise":12761,"abil":12762,"Ġvirt":12763,"Ġbomb":12764,"aron":12765,"_IS":12766,"Ġvast":12767,"Real":12768,"epend":12769,"icted":12770,"Ġpicked":12771,"ĠFL":12772,"ĠRepublicans":12773,".zeros":12774,"Pressed":12775,"sup":12776,".Core":12777,"Microsoft":12778,"services":12779,"agic":12780,"iveness":12781,"Ġpdf":12782,"Ġroles":12783,"ras":12784,"Ġindustrial":12785,"Ġfacilities":12786,"è¡":12787,"Ġni":12788,"Ġba":12789,"Ġcls":12790,"ĉB":12791,"Customer":12792,"Ġimagine":12793,"Ġexports":12794,"OutputStream":12795,"Ġmad":12796,"(de":12797,"){ĊĊ":12798,"Ġfro":12799,"hus":12800,"Ġcommittee":12801,"ìĿ´":12802,",x":12803,"Ġdivision":12804,"(client":12805,"(java":12806,"optional":12807,".Equal":12808,"ĠPhys":12809,"ingu":12810,"Ġsync":12811,"ĠNa":12812,"}}</":12813,"OLUM":12814,"itÃ©":12815,"Ġidentifier":12816,"owed":12817,"Ġextent":12818,"Ġhur":12819,"VA":12820,"clar":12821,"Ġedges":12822,"Criteria":12823,"Ġindeed":12824,"inherit":12825,"ĠNight":12826,"Ġreporting":12827,"Ġencounter":12828,"Ġkinds":12829,"_pred":12830,"Ġconsidering":12831,".(":12832,"Ġprotein":12833,"Typ":12834,"gricult":12835,"ĠBall":12836,"@Component":12837,"ĠEss":12838,"ĠRub":12839,"ulp":12840,"ĠĠĠĠĠĠĠĠĠĠĠĠĠĠĠĠĠĠĠĠĠĠĠĠĠĠĠĠĠĠĠĠĠĠĠĠĠĠĠĠ":12841,"itud":12842,".attr":12843,"iente":12844,"Ġspell":12845,"ĠJoe":12846,"ENTER":12847,"_host":12848,"itan":12849,"Ġmatters":12850,"Ġemergency":12851,"uated":12852,"ĠChat":12853,"={'":12854,"contri":12855,"arker":12856,"æĪĲ":12857,"iper":12858,"Ġscheme":12859,"(stderr":12860,"Ġ*(":12861,"ceiver":12862,".column":12863,"Ġmarked":12864,"_ATTR":12865,"Ġbodies":12866,"ĠIMPLIED":12867,"Gap":12868,"ĠPOST":12869,"Ġcorporate":12870,"Ġdimension":12871,"Ġcontrast":12872,"erview":12873,"ĠERROR":12874,"Ġcapable":12875,"Ġadvertising":12876,"urchase":12877,"ĠPA":12878,"ĠFrancisco":12879,"Ġfacing":12880,"ãĢĮ":12881,"git":12882,"Ġbeer":12883,"Ġsky":12884,"download":12885,"ĠCur":12886,"mc":12887,"anny":12888,".floor":12889,"Ġcriteria":12890,"ĠparseInt":12891,"`,Ċ":12892,"Ġaspect":12893,"Ġbundle":12894,"Could":12895,"Ġtank":12896,"-id":12897,"Ġhurt":12898,"Ġbroadcast":12899,"OKEN":12900,"ownt":12901,"nullable":12902,"Cap":12903,"Ġalcohol":12904,"ĠColl":12905,"ĠHelper":12906,"ĠAf":12907,".method":12908,"Ġplanned":12909,"pler":12910,"ĠSite":12911,"Ġresc":12912,"oment":12913,"ĠJavaScript":12914,"SERVER":12915,"Ġrhs":12916,"eres":12917,"(\",":12918,"ifi":12919,".fields":12920,"Ġparking":12921,"Ġisland":12922,"Ġsister":12923,"_Ċ":12924,"Constraints":12925,"ĠAust":12926,"dim":12927,"_points":12928,"Ġgap":12929,"_active":12930,"Ġvoor":12931,"ĠPO":12932,"Bag":12933,"-scale":12934,"lambda":12935,".Dispose":12936,"rule":12937,"Ġowned":12938,"ĠMedical":12939,"entries":12940,"Ġsolar":12941,"Ġresulting":12942,"Ġestimated":12943,"Ġimproved":12944,"Duration":12945,"employee":12946,"$.":12947,"Actions":12948,"Like":12949,",(":12950,"(Request":12951,"%s":12952,".Open":12953,")\"Ċ":12954,"Ġpixel":12955,"Ġadapter":12956,"Ġrevenue":12957,"ogram":12958,"ĠLA":12959,"ĠMachine":12960,"ĠØ§":12961,"Ġfle":12962,"Ġbike":12963,"Insets":12964,"Ġdisp":12965,"Ġconsistent":12966,"aÃ§Ã£o":12967,"gender":12968,"ĠThose":12969,"perience":12970,".BackColor":12971,".play":12972,"Ġrush":12973,"Ġaxios":12974,"Ġneck":12975,"_mem":12976,".PREFERRED":12977,"_first":12978,"CB":12979,"ĠWidget":12980,"Ġseq":12981,"har":12982,"Ġhits":12983,"ĠâĤ¬":12984,"Ġcontained":12985,"rient":12986,"water":12987,"LOAD":12988,"ĠVirginia":12989,"ĠArm":12990,"Ġ./":12991,"Â»":12992,"_root":12993,"Ġassistance":12994,"[],":12995,"sync":12996,"Ġveget":12997,"escape":12998,"icer":12999,"boost":13000,"ĠFloat":13001,"-W":13002,"*/čĊ":13003,"*>":13004,"Ġ$(\".":13005,".pos":13006,"Ġboys":13007,"Ġwedding":13008,"Ġagents":13009,"=\"_":13010,"ĠArmy":13011,"Ġhint":13012,"vision":13013,"Ġtech":13014,"ĠConnect":13015,"Ġlegend":13016,"ĠBet":13017,".Base":13018,"Subject":13019,"Ġlit":13020,"Remove":13021,"Ġ\":":13022,"ĠFinal":13023,"pearance":13024,"ĠiTunes":13025,"Ġparticipants":13026,"ĠPython":13027,"Ġbusy":13028,"iel":13029,"vertices":13030,"ĠtemplateUrl":13031,"ĠClose":13032,"Img":13033,"ĠCorporation":13034,"timestamp":13035,"Ġextend":13036,"Ġwebsites":13037,"Ġpossibility":13038,"Ð¾ÑĤ":13039,"ĠkÃ¶":13040,"Ġmeat":13041,"Ġrepresentation":13042,"Ġĉĉ":13043,"_START":13044,".apply":13045,"ĠValley":13046,"ĠSuccess":13047,"Hi":13048,"Ġnob":13049,"ĠIEnumerable":13050,"_select":13051,"geo":13052,".\")Ċ":13053,"Ġturning":13054,"Ġfabric":13055,"(\"\");Ċ":13056,"Ġperspective":13057,"éĹ":13058,"ĠSn":13059,"Thank":13060,";j":13061,".Parameters":13062,"ĉĠĠĠĠĠĠĠĠĠĠĠ":13063,"Ġfacts":13064,"Ġunt":13065,".instance":13066,"################################################################":13067,"-end":13068,"ĠJOIN":13069,"ĠHen":13070,"Ġuri":13071,"åĲį":13072,"ĠÐ½Ð°":13073,"ĠInfo":13074,"Ġconducted":13075,"ĠÃ¥":13076,"OURCE":13077,"Ġwine":13078,"John":13079,".Errorf":13080,"ĠAge":13081,"ounded":13082,"Ġrealize":13083,"Ġ];":13084,"Ġsubsequ":13085,",m":13086,"(User":13087,"iano":13088,"Ġaccompl":13089,"isp":13090,".std":13091,"éĩ":13092,"ĠBed":13093,".setAttribute":13094,"BR":13095,"keep":13096,"ĠALL":13097,"Ġisol":13098,"amma":13099,"Package":13100,"Ġoccasion":13101,"-success":13102,"ÐµÐ´":13103,"ĠLIMITED":13104,"strip":13105,"()ĊĊĊ":13106,"istribution":13107,"Colors":13108,"Ġ+:+":13109,"DidLoad":13110,"aler":13111,"Ġtid":13112,"ĠLED":13113,"ĠLinked":13114,"ĠCart":13115,"())čĊ":13116,"_READ":13117,"Ġkilling":13118,"ĠPHP":13119,"fection":13120,"Ġinstances":13121,"cv":13122,"\"/>":13123,"Ġsf":13124,"Ġtaxes":13125,"_location":13126,"ĠBitcoin":13127,"uable":13128,"rank":13129,"ignore":13130,"track":13131,"ÐºÐ°":13132,"Ġshouldn":13133,"ĠOP":13134,"=>{Ċ":13135,"Ġkm":13136,"Ġhelper":13137,"_head":13138,"ĠWhether":13139,"oco":13140,"_bl":13141,"Ġstatistics":13142,"Ġbeauty":13143,"Ġtog":13144,"tip":13145,"ëĭ¤":13146,"Ġcsv":13147,"(sql":13148,"stdlib":13149,"weak":13150,"Ġlikes":13151,"Äį":13152,"Ġrepeat":13153,"Ġapartment":13154,"Ġemph":13155,"_edit":13156,"Ġvit":13157,"ĉtype":13158,"Even":13159,"uten":13160,"Ġcircumstances":13161,"bian":13162,"Ġsugar":13163,"Windows":13164,"ìŀ":13165,"Ġobserved":13166,"/data":13167,"Ġcalendar":13168,"Ġstrike":13169,"ĠRES":13170,"_sc":13171,"fony":13172,"orem":13173,"(z":13174,"power":13175,"etect":13176,"ĠSat":13177,".description":13178,"Ġgang":13179,"ĠSports":13180,"ongs":13181,"ĠBundle":13182,".sum":13183,"once":13184,"Ġaccused":13185,"Ġexplore":13186,"Ġapproximately":13187,"Ġlosing":13188,"thesis":13189,"ĠFund":13190,"Ġdiagn":13191,"Autowired":13192,"properties":13193,"Ġ_.":13194,"Ġcnt":13195,"cedure":13196,"Ġyy":13197,"Ġgrant":13198,"sock":13199,".innerHTML":13200,"Ġ]);Ċ":13201,"ĠCONFIG":13202,"='$":13203,"]];Ċ":13204,"UND":13205,"Ġglob":13206,"Ġdire":13207,"uffle":13208,"_MEM":13209,"Ġauthentic":13210,">(\"":13211,"Ġdecade":13212,"ĠImport":13213,"Ġoriginally":13214,"ĠjQuery":13215,"Ġindicate":13216,"Ġourselves":13217,"Sw":13218,".lbl":13219,"enerate":13220,"Ġbasically":13221,"ĠHom":13222,"Ġ+#+":13223,"ĠBritain":13224,"ĠKar":13225,"toEqual":13226,".stop":13227,"Ġmodal":13228,"isi":13229,"Ġsuggests":13230,"Ġdtype":13231,"Ġtur":13232,"bf":13233,"Ġconnections":13234,"ĠBefore":13235,"isted":13236,"mouse":13237,"Ġpulled":13238,".build":13239,"Ġlegislation":13240,"Ġforth":13241,"pad":13242,"ego":13243,".Now":13244,"Ġexciting":13245,"}ĊĊĊĊ":13246,"Ġcompr":13247,"Ġshares":13248,"Ġrig":13249,"green":13250,"_vec":13251,"Ġenumerate":13252,"Auto":13253,"icator":13254,"ĠRay":13255,"asse":13256,"Ġholiday":13257,"Ġnullable":13258,"gun":13259,"_details":13260,"Ġwrapper":13261,"seq":13262,"ĠYoung":13263,"juana":13264,"Ġ\"__":13265,"license":13266,"serve":13267,"^(":13268,"iders":13269,".Remove":13270,"ropdown":13271,"'S":13272,"pin":13273,"(token":13274,".Default":13275,"Ġreasonable":13276,"ampion":13277,"ĠSociety":13278,"Ġbei":13279,"erves":13280,"rad":13281,"ĠFox":13282,"_images":13283,"Ġwheel":13284,"')[":13285,"Ġcfg":13286,"(By":13287,"Constructor":13288,"Ġvary":13289,".swift":13290,"Ġproxy":13291,"ĉH":13292,"ĠAnother":13293,"ĠPen":13294,"Ġchecking":13295,"Ġjest":13296,"manager":13297,"Origin":13298,"ugs":13299,"oir":13300,"><!--":13301,"Ġexpressed":13302,"Ġmoder":13303,"Ġagencies":13304,"Ġih":13305,"-hidden":13306,"iously":13307,"ĠRod":13308,"Ġsole":13309,"Med":13310,".Any":13311,"Ġpc":13312,"bal":13313,"Example":13314,"ĠSale":13315,"Ġstrip":13316,"ĠComp":13317,"Ġpresidential":13318,"Most":13319,"putation":13320,"(ref":13321,"ĠFour":13322,"_filename":13323,"Ġenforcement":13324,"Ø¯":13325,"ĠGeorg":13326,"weights":13327,"/l":13328,"Ġaggress":13329,"Ġdrawing":13330,"andy":13331,"<I":13332,"-j":13333,"aka":13334,"href":13335,"Ġteachers":13336,"_Q":13337,"(it":13338,"ĠMB":13339,"Ġtemporary":13340,"irebase":13341,"stra":13342,"æĹ¶":13343,"è´":13344,"(label":13345,"oup":13346,"Ġtopics":13347,"Ġportion":13348,"idos":13349,"ĠJewish":13350,"Ġrecovery":13351,"Ġstands":13352,"#[":13353,"Ġafternoon":13354,"ĠArticle":13355,"_att":13356,"Ġexplan":13357,"ĠPak":13358,".setOnClickListener":13359,".children":13360,"Ġik":13361,"+(":13362,"lag":13363,"Ġdisk":13364,"Ġcontrovers":13365,"\">&":13366,"asp":13367,"Ġwie":13368,"ĠAustralian":13369,"ĠYouTube":13370,"Attr":13371,"contains":13372,"duce":13373,"ĠMatt":13374,"atern":13375,"Ġvolunte":13376,"Ġnewsp":13377,"VP":13378,"oltip":13379,"Ġdelegate":13380,"_meta":13381,"Ġaccurate":13382,"ĠExample":13383,"%,":13384,"ĠDaily":13385,"Ġcabin":13386,"ĠSW":13387,"Ġlimits":13388,"kip":13389,"Ġarmy":13390,"Ġending":13391,"Ġboss":13392,"ĠDialog":13393,"Also":13394,"=\"#\"":13395,"ordan":13396,"rowse":13397,"-min":13398,"Ġ\"&":13399,"_loc":13400,"UX":13401,"Ġdevelopers":13402,"Ġaccuracy":13403,"Ġmaintenance":13404,"Ġheav":13405,"Ġfilters":13406,".ToolStrip":13407,"Ġnarr":13408,"ĠEmp":13409,"ORDER":13410,"ĠMobile":13411,".Serial":13412,".output":13413,".col":13414,"Material":13415,"uma":13416,"Ġconsumers":13417,"shift":13418,"Ġpued":13419,"Ġmini":13420,"collection":13421,"Ġkan":13422,".center":13423,"History":13424,"Ġbench":13425,"());":13426,"itories":13427,"Ġcrowd":13428,"_call":13429,"Ġpowers":13430,"-E":13431,"Ġdismiss":13432,"Ġtalks":13433,"ĠChannel":13434,"forward":13435,"_control":13436,"/src":13437,"iest":13438,"************************":13439,"Ġbeta":13440,"(color":13441,"_OBJECT":13442,"ĠApi":13443,"Ġeffectively":13444,"Camera":13445,"sd":13446,"ussy":13447,"Dict":13448,"ĠEffect":13449,"ibilities":13450,"Ġreturning":13451,"ĠFar":13452,"Ġ'')":13453,"Ġmodules":13454,"ilation":13455,"Ġ(%":13456,"TRGL":13457,"Ġstorm":13458,"onna":13459,"ĠEXP":13460,"Ġspons":13461,"Ġdispl":13462,"ĠĠĠĠĠĠĠĠĠĠĠĠĠĠĠĠĠĠĠĠĠĠĠĠĠĠĠĠĠĠĠĠĠĠĠĠĠĠĠĠĠĠĠĠĠ":13463,"fall":13464,"åĮ":13465,"ignKey":13466,"_US":13467,"etrics":13468,"Ġhandles":13469,"TL":13470,"_amount":13471,"owa":13472,"brand":13473,"ĠTool":13474,"Ġusual":13475,".Z":13476,"crement":13477,"adium":13478,"stock":13479,"Ġserving":13480,"ĠBon":13481,"Ġlinear":13482,"ĠTarget":13483,"ĠRadio":13484,"HL":13485,"Shader":13486,"omatic":13487,"agues":13488,"inity":13489,"diff":13490,"_iterator":13491,"quot":13492,"Ġ,Ċ":13493,"callback":13494,"Ġsymptoms":13495,"[_":13496,"ĠBul":13497,"ĠFeb":13498,"undo":13499,"_account":13500,"Ġtypedef":13501,"Ð¸Ñģ":13502,"tras":13503,"UserId":13504,"ĠPenn":13505,"ĠSupreme":13506,"}>":13507,"userId":13508,"ĠKim":13509,"Ġga":13510,"Ġartists":13511,"å¸":13512,"ĠAbstract":13513,"okemon":13514,"Ġham":13515,"oval":13516,"Ġcha":13517,"aten":13518,"åĨ":13519,"Fixed":13520,"Ġvulner":13521,"ĠParameters":13522,"quantity":13523,".Clear":13524,"ServletRequest":13525,"Ġya":13526,"Ġsoul":13527,"transaction":13528,"Ġsolo":13529,"Ġpairs":13530,"æĶ":13531,"ĠGre":13532,"_word":13533,"ĠCC":13534,"Ġgi":13535,"zie":13536,"Ġscheduled":13537,"rotation":13538,"gypt":13539,"ulous":13540,"::_":13541,"ĠEll":13542,"<!":13543,"ĉĉĠĠ":13544,"lp":13545,"aha":13546,"Copyright":13547,"Ġdram":13548,"Ġdiagram":13549,"ĠMem":13550,"Ġgarden":13551,"Comp":13552,"Ġattempts":13553,"uffix":13554,">()":13555,"Ġphilosoph":13556,"_rel":13557,"å¼":13558,"Ġsv":13559,".second":13560,"anto":13561,".Json":13562,"ĠTele":13563,"_local":13564,"_send":13565,"Ġaspects":13566,"ìĹ":13567,"IBLE":13568,"Ġrail":13569,"Ġwidely":13570,"ashed":13571,"iar":13572,"inf":13573,"upper":13574,"django":13575,"_results":13576,"issing":13577,"Ġequivalent":13578,"OUND":13579,"Ġty":13580,"Ġpotentially":13581,"Advertisement":13582,"ĠRecord":13583,"resentation":13584,"_widget":13585,"ounding":13586,"Ġreligion":13587,"Ġconsc":13588,"ĠLim":13589,".am":13590,"Html":13591,"Ġ':":13592,"PATH":13593,"_spec":13594,"orted":13595,"idades":13596,"_shape":13597,"Ġkeeps":13598,".Save":13599,"ĠLoc":13600,"ori":13601,"ĠTEST":13602,"unicip":13603,"Ġregions":13604,"Ġbelieves":13605,"/en":13606,"posite":13607,"{'":13608,"prepare":13609,"_const":13610,"sample":13611,"ĠWilliams":13612,"Ġstrt":13613,"_Get":13614,"ĠAndrew":13615,".active":13616,"Ġlayers":13617,"VisualStyle":13618,"azy":13619,"ĠKn":13620,"Ġacid":13621,"ĠAsia":13622,"Ġexcess":13623,"ĉmy":13624,"Ġkeyboard":13625,"ensus":13626,"Ġcrew":13627,"Ġmissed":13628,"master":13629,"ĠWild":13630,"Ġnewly":13631,"Ġwinner":13632,"Ġstub":13633,"icode":13634,".move":13635,"Domain":13636,"ĠSar":13637,"Ġforest":13638,"LED":13639,"claimer":13640,".exit":13641,"ĠWindow":13642,"Ġresistance":13643,"ĠCHECK":13644,"(\"-":13645,"ĠRyan":13646,"Ġpipe":13647,"Ġcoast":13648,"DEF":13649,"//!":13650,"_off":13651,"exit":13652,"Ġultimately":13653,"imitive":13654,"ĠKeep":13655,"Ġhistorical":13656,"Ġanyway":13657,"ĠJackson":13658,"ocker":13659,"ERN":13660,"ĠUINT":13661,"yntax":13662,"ERY":13663,"isms":13664,"Ġcn":13665,"Ġoccurs":13666,"Ġ;;":13667,"TextView":13668,"AE":13669,"/img":13670,"Ġyesterday":13671,"-default":13672,"Ġtiny":13673,"Ġproc":13674,"Ġalive":13675,"ĠREG":13676,".th":13677,"earing":13678,".getLogger":13679,"<link":13680,"_login":13681,"Folder":13682,"abc":13683,"lyphicon":13684,"Ð½Ð¾":13685,"Ġnoticed":13686,"odigo":13687,"Ġedition":13688,"imator":13689,".Enabled":13690,".parseInt":13691,"Ġyards":13692,"ĉĉĉĉĉĉĉĉĉĉĉĉ":13693,"Ġverbose":13694,"Ð»Ñı":13695,"_BY":13696,".login":13697,".*;Ċ":13698,"ĠMid":13699,"Ã©es":13700,"Ġglo":13701,"Ġbuildings":13702,"Ġze":13703,"ĠIter":13704,"Ġtube":13705,"ĠPot":13706,"\\M":13707,"<th":13708,"bridge":13709,"ĠScript":13710,"ĠModule":13711,"Ġvacc":13712,"Ġinstallation":13713,"vy":13714,"VisualStyleBackColor":13715,"ĠSM":13716,".total":13717,"bat":13718,"Ġfinds":13719,"Ġatmos":13720,"Subview":13721,"izard":13722,"Ġreplacement":13723,"licated":13724,"apis":13725,"Ġlogged":13726,"ĠLeft":13727,"Gui":13728,"_Type":13729,"tm":13730,"Pad":13731,"Ġhousehold":13732,"Ġrele":13733,"Ġproposal":13734,"_CLASS":13735,"::::":13736,"Ġinfrastructure":13737,"Inject":13738,"/html":13739,"Ġads":13740,"izza":13741,"Ġmg":13742,"ctrine":13743,"%Ċ":13744,"<html":13745,"-image":13746,"Ġattorney":13747,"<m":13748,"(',":13749,"Ġcann":13750,"Ġprintln":13751,"oose":13752,"Ġyellow":13753,".exp":13754,"payment":13755,"ĠtableView":13756,"away":13757,"Ġopposition":13758,"ĠAgain":13759,"ĠHandle":13760,"Ġexclusive":13761,"inar":13762,"Ã©r":13763,"Ð¾Ð±":13764,"ĠCODE":13765,"emporary":13766,"Ġreact":13767,"pipe":13768,"cz":13769,".activity":13770,"Ġlargely":13771,"Ġdiss":13772,"axy":13773,"esis":13774,"ĠRen":13775,"Ġcorn":13776,".UseVisualStyleBackColor":13777,"days":13778,"Ġfruit":13779,"Insert":13780,"_enc":13781,"Est":13782,"_dec":13783,"ĠLuc":13784,"ĠÃ¼ber":13785,"parameters":13786,"PERT":13787,"express":13788,"_profile":13789,"Unknown":13790,"Ġrevolution":13791,".address":13792,"_require":13793,"Ġuniform":13794,"ĠPack":13795,"lar":13796,"ĠUITableView":13797,"Ġdepends":13798,"Validation":13799,"confirm":13800,"Owner":13801,"Ġtrib":13802,"het":13803,"ĠIde":13804,"ansas":13805,"Language":13806,"uet":13807,"ĠPo":13808,"ĠSteve":13809,"Ġcontest":13810,"_DEFAULT":13811,"Ġapparently":13812,"REEN":13813,"Ġfrequently":13814,"Ġtradition":13815,"ocolate":13816,"SI":13817,"ĠArgument":13818,"Focus":13819,"erte":13820,"ĠLayout":13821,"Ġdx":13822,"Ġgenerator":13823,"ĠWait":13824,"Policy":13825,"lights":13826,".Execute":13827,"Py":13828,"Ġbedroom":13829,"eda":13830,"raid":13831,"ĉsize":13832,"Ġancient":13833,"Ġpump":13834,"Ġdw":13835,"Ġ(!(":13836,"Ġspecify":13837,"(status":13838,"ĠFBI":13839,".exception":13840,"Ġremark":13841,"lymp":13842,"antee":13843,"Upload":13844,"ernet":13845,"é¡":13846,"inent":13847,"ĠRender":13848,"dm":13849,"ĠMemory":13850,"rich":13851,"ĠTools":13852,"Ġkne":13853,"Ġperm":13854,"bad":13855,"Ġdinner":13856,".reset":13857,"ĠjLabel":13858,"Feature":13859,".Service":13860,"Ġ({Ċ":13861,"Ġreferred":13862,".classList":13863,"ĠinitWith":13864,"ĠTextView":13865,"Ġneither":13866,"Ġcounty":13867,"Ġ\"{":13868,"ç§":13869,"Ġtack":13870,"className":13871,"ĠUSER":13872,"Ġrenew":13873,"``":13874,"getName":13875,"Ġbrown":13876,"Errors":13877,"erto":13878,"Ġsustain":13879,"SO":13880,"letes":13881,"ĠInvalid":13882,"Ġenemies":13883,"unge":13884,"Ġexistence":13885,"erra":13886,"ĊĠĠĊ":13887,"utorial":13888,"#a":13889,"pay":13890,"charge":13891,"ĠIre":13892,"atest":13893,"Ġexplos":13894,"Ġfired":13895,"NER":13896,"ĠTy":13897,"icion":13898,"Uri":13899,"Ġobviously":13900,"ĠColum":13901,"Ġ'+":13902,"ĠDevice":13903,"-related":13904,"_ARG":13905,"Ġvor":13906,"ĠLesser":13907,"_OP":13908,"Serializer":13909,"Ġupgrade":13910,"Light":13911,"Ġcodes":13912,"++;čĊ":13913,"Ġwrites":13914,"food":13915,"ĠÃ©t":13916,"@section":13917,"Ġtracks":13918,"Ġseriously":13919,"cht":13920,"(sizeof":13921,"Ġimmediate":13922,"Ġscientists":13923,"Ġ{$":13924,"_ne":13925,".AnchorStyles":13926,"Ġaccommod":13927,"ĠHarry":13928,"Ġsight":13929,"ĠPalest":13930,"ersistent":13931,"ĠÑĥ":13932,"-input":13933,"Ġcoordinates":13934,"Â·":13935,"Welcome":13936,".conf":13937,"Ġgrew":13938,"Ġbold":13939,"ĠCPU":13940,"(my":13941,"Ġperfectly":13942,"Ġmoments":13943,"ĠMovie":13944,"-data":13945,"ystal":13946,"_WIDTH":13947,"ĠScreen":13948,"æĿ":13949,"Ġdisap":13950,"Ġreduction":13951,".GetComponent":13952,"_MODULE":13953,"Ġgeneric":13954,"Ġdy":13955,"aller":13956,"Ġcurl":13957,"ĠBody":13958,"Ġbanks":13959,",t":13960,"avg":13961,"Ġevil":13962,"Ġmanufacturer":13963,"Ġreceiver":13964,"Columns":13965,"Ġingredients":13966,"ĉout":13967,"ques":13968,".Load":13969,"Ġslowly":13970,"ĠTown":13971,"ĠCell":13972,"_normal":13973,"_prefix":13974,"ĠAlert":13975,"(\"{":13976,"Ã¤r":13977,"âĢľThe":13978,"ĠMD":13979,"Ġcourses":13980,"athan":13981,"éĻ":13982,"occ":13983,"ĠSER":13984,"esign":13985,"Addr":13986,"=['":13987,"(\"./":13988,"]}":13989,".font":13990,"ĠInstagram":13991,"ĠBorder":13992,"oda":13993,"Ġhall":13994,"Ġrum":13995,"_bit":13996,"Ġsaving":13997,"_down":13998,"Random":13999,"_register":14000,"(Context":14001,"Ġopposite":14002,"Room":14003,"YES":14004,"Ð°Ð½Ð¸":14005,"Ġenjoyed":14006,"_run":14007,"Clear":14008,"âĢĺ":14009,"ĠFord":14010,"onic":14011,"osten":14012,"\"])":14013,"_auth":14014,"//čĊ":14015,"Ġsufficient":14016,"LES":14017,"Ġphen":14018,"Ġoh":14019,"_csv":14020,"Ġroutine":14021,".AreEqual":14022,"aylor":14023,"Ġbasket":14024,"_COMM":14025,"rypted":14026,"Sim":14027,"ĠShop":14028,"Ġstudio":14029,"atos":14030,"(W":14031,"[string":14032,"Ã¤t":14033,"oga":14034,"Ġshr":14035,"Ġsick":14036,"Another":14037,"Ġdoors":14038,"_NE":14039,"ĠTHREE":14040,".order":14041,"razil":14042,"Ġmaps":14043,"_TRUE":14044,"translate":14045,"Ġnearby":14046,"Ġnach":14047,"LOAT":14048,"batch":14049,"Ġlux":14050,"ashes":14051,"angers":14052,"âĢ¦âĢ¦":14053,"_EVENT":14054,"_UP":14055,"Ġacts":14056,"inv":14057,"_METHOD":14058,"ccion":14059,"Ġretain":14060,"utch":14061,"ĠÐ±":14062,"Ġknowing":14063,"Ġrepresenting":14064,"NOT":14065,"png":14066,"Contract":14067,"Ġtrick":14068,"ĠEdition":14069,"uplicate":14070,"Ġcontrolled":14071,"cfg":14072,"javascript":14073,"Ġmilk":14074,"White":14075,"Sequence":14076,"awa":14077,"Ġdiscussed":14078,"ĠBush":14079,"ĠYES":14080,".factory":14081,"tags":14082,"Ġtact":14083,"Ġsid":14084,"$$":14085,"ĠEnum":14086,"Ġframes":14087,"});":14088,"Ġregul":14089,"'];čĊ":14090,"Region":14091,"fff":14092,"Ġcro":14093,"(com":14094,"=\"+":14095,"Student":14096,"Ġdisappoint":14097,"RESULT":14098,"Counter":14099,"Ġbutter":14100,"ĠHa":14101,"ĠDigital":14102,"Ġbid":14103,"\">{{":14104,"ingers":14105,"ĠCountry":14106,"_tpl":14107,"\"])Ċ":14108,"/k":14109,"dating":14110,":#":14111,"ĠDATA":14112,"ynchron":14113,"_body":14114,"ollywood":14115,"Ġvalor":14116,"ipient":14117,"oft":14118,"UBL":14119,"docs":14120,"Ġsynchron":14121,"Ġformed":14122,"ruption":14123,"Ġlista":14124,"RequestMapping":14125,"Ġvillage":14126,"Ġknock":14127,"ocs":14128,"\"{":14129,"_flags":14130,"Ġtransactions":14131,"Ġhabit":14132,"ĠJe":14133,"eden":14134,"Ġaircraft":14135,"irk":14136,"ĠAB":14137,"Ġfairly":14138,".inter":14139,".Act":14140,"Ġinstrument":14141,"removeClass":14142,".command":14143,"Ñī":14144,"ĉmem":14145,"(min":14146,"Ġot":14147,"Ġcolle":14148,"=s":14149,"timeout":14150,"Ġids":14151,"ĠMatch":14152,"ijn":14153,"zero":14154,"Ġnetworks":14155,".gov":14156,"Ġintel":14157,"Ġsections":14158,"outine":14159,"(cmd":14160,"(dir":14161,"ĠLIABILITY":14162,"ĠBlog":14163,"Ġbridge":14164,"ĠCV":14165,"convert":14166,"Ġ\")Ċ":14167,"ĠBern":14168,"_PO":14169,"eval":14170,"(set":14171,"tool":14172,"Ġpayments":14173,"Behaviour":14174,"Ġconcrete":14175,"Ġelig":14176,"Ġacceler":14177,"Ġhole":14178,"_o":14179,"TEGER":14180,"Ġgraphics":14181,"Own":14182,"Formatter":14183,"onder":14184,"Ġpackages":14185,"/a":14186,"ĠKnow":14187,"OrDefault":14188,"Ġduty":14189,"Wait":14190,"Ð½Ð°":14191,"_record":14192,"[t":14193,"Mesh":14194,"Ġongoing":14195,".beans":14196,"Ġtan":14197,"Ġinterpret":14198,"asters":14199,"QUAL":14200,"Ġlegs":14201,"\\Request":14202,"-file":14203,"_mutex":14204,"ĠSaint":14205,"//#":14206,"Ġprohib":14207,"(info":14208,":=":14209,"linux":14210,"Ġblo":14211,"otic":14212,"ĉfinal":14213,"_exp":14214,"ĠStop":14215,"aping":14216,"(saved":14217,"_push":14218,"Ġease":14219,"_FR":14220,"ponsive":14221,"strcmp":14222,":ĊĊĊĊ":14223,"ä»¶":14224,"oli":14225,"Ġextreme":14226,"Ġprofessor":14227,"Images":14228,".IOException":14229,"Ġaddresses":14230,"plemented":14231,"Ġincorpor":14232,"ĠuseEffect":14233,"_OF":14234,"ĠDa":14235,"nombre":14236,"IRST":14237,"Ġdiscrim":14238,"Ġcompens":14239,"gregate":14240,"ancell":14241,"aches":14242,"ĠCriteria":14243,"$result":14244,"Destroy":14245,"Ġsecondary":14246,"Watch":14247,"ĠSem":14248,"ĠMcC":14249,"Ġacademic":14250,"Upper":14251,"::~":14252,"utral":14253,"ĠDog":14254,"aded":14255,"Validator":14256,"Ġderived":14257,"ĠsetTimeout":14258,"ĠKen":14259,"Ġtypical":14260,"ĠBob":14261,"Ġbounds":14262,"ĠSeason":14263,"Ġcrazy":14264,"ĠĠĠĠĠĠĠĠĠĠĠĠĠĠĠĠĠĠĠĠĠĠĠĠĠĠĠĠĠĠĠĠĠĠĠĠĠĠĠĠĠĠ":14265,"-router":14266,"ittest":14267,"ĠMir":14268,"Ġemotional":14269,",v":14270,"cn":14271,"/st":14272,"å½":14273,"onom":14274,"Ġdeclared":14275,">.":14276,"ailing":14277,"Ġ/*<<<":14278,"Ġnormally":14279,"(Me":14280,"evin":14281,"likely":14282,"Ġpointed":14283,"ĠStack":14284,"Ġwalls":14285,".Vector":14286,"mean":14287,"]]Ċ":14288,"Ġlistening":14289,"adv":14290,"Ġswap":14291,"IFT":14292,"Øª":14293,".argv":14294,"uls":14295,"<option":14296,"notations":14297,"Ġemails":14298,"ĠUkr":14299,"asta":14300,"ĠThus":14301,"ĠStone":14302,"Ġappeal":14303,".âĢĻ":14304,"Ġregulations":14305,"Preferences":14306,"ĠPhone":14307,"ulf":14308,"ĠDR":14309,"Ġtechnologies":14310,"Ġparagraph":14311,"Ġnecessarily":14312,".each":14313,"<float":14314,"resa":14315,"Ġunderst":14316,"Ġfinger":14317,"pressed":14318,"-by":14319,"iffer":14320,"watch":14321,"ĠBa":14322,"AIM":14323,"Ġweights":14324,"ĠRon":14325,"')}}":14326,"[self":14327,"----------Ċ":14328,"periment":14329,"ĠtoString":14330,"xic":14331,"ĠCamera":14332,"!ĊĊĊĊ":14333,"aurant":14334,"Prefix":14335,"Ġinstitutions":14336,":int":14337,"Ġexposure":14338,"pattern":14339,"ĠLinux":14340,".number":14341,"redient":14342,"ArgumentException":14343,"ĠChief":14344,"\"},":14345,"Ġelectronic":14346,"rong":14347,"erd":14348,"spNet":14349,"rait":14350,"/',":14351,"ĠOhio":14352,"Controllers":14353,"Ġcontinuing":14354,"ĠTemplate":14355,"ĠEth":14356,"sz":14357,"/env":14358,"Env":14359,"%.":14360,"arters":14361,")((":14362,"ĠTABLE":14363,"ĠÃ®":14364,"perature":14365,"progress":14366,"Pres":14367,"ê°":14368,"implementation":14369,"Ġbien":14370,"Ġstreets":14371,"_MSG":14372,"News":14373,"###":14374,":/":14375,"Ġcutting":14376,"xB":14377,"ressed":14378,"_ENABLE":14379,"lab":14380,"Ġcausing":14381,"]));Ċ":14382,"bra":14383,"xFFFF":14384,"illy":14385,"pletion":14386,"will":14387,"_bar":14388,"Ġstructures":14389,"ĠImp":14390,"ÛĮ":14391,"Ġ<>":14392,"Ġ----------------":14393,"_BUFFER":14394,".dir":14395,"Ġplain":14396,"Ġpeer":14397,"gg":14398,"oints":14399,"Ġsomewhat":14400,"Ġwet":14401,"Ġemployment":14402,"Ġtickets":14403,"irms":14404,"Ġtuple":14405,"sis":14406,"$sql":14407,"rig":14408,"Ġconversion":14409,"Ġges":14410,"Ġconfigure":14411,"egr":14412,"ĠCa":14413,"Ġ__('":14414,"ouston":14415,".token":14416,"Black":14417,"Ġmagazine":14418,"AW":14419,".IN":14420,"osing":14421,"Ġbroke":14422,"ĠCru":14423,"DELETE":14424,"Ġdestroyed":14425,"(Math":14426,"Ġapproval":14427,"-dom":14428,"ĠIII":14429,"tableView":14430,"Ġdesigns":14431,"Ġcrushing":14432,"Ġconsent":14433,"dirname":14434,"omp":14435,"Ġcrypt":14436,"?(":14437,"orough":14438,".o":14439,"ĉlist":14440,"amsung":14441,".\"\"\"Ċ":14442,"erring":14443,"Google":14444,"_pair":14445,"_INIT":14446,"remarks":14447,"Ġgear":14448,"Fill":14449,"life":14450,"}\")Ċ":14451,"Ġsuitable":14452,"Ġsurprised":14453,"_REQUEST":14454,"Ġmanifest":14455,"atten":14456,"Ġfrustr":14457,"ovement":14458,".click":14459,"Ġii":14460,"Ġexpansion":14461,"igs":14462,"Parse":14463,".Regular":14464,"Rob":14465,"_layout":14466,"ìł":14467,"Ġtranslation":14468,"ĠBeaut":14469,"Best":14470,"_COLOR":14471,"<label":14472,"Ġliquid":14473,"ITS":14474,"Ġprod":14475,"Ġoperate":14476,"UIKit":14477,"Ġnatur":14478,"argument":14479,"_detail":14480,"ĠCentre":14481,"Ġ\"--":14482,"Ġ}}\"":14483,"locale":14484,".tv":14485,"_seq":14486,"Ġupcoming":14487,"Chart":14488,"ĠDivision":14489,"Ġclinical":14490,"Company":14491,"Separ":14492,"las":14493,"ĠHun":14494,":s":14495,"Ġheading":14496,"Ð¾Ð³":14497,"Ġ\"\");Ċ":14498,"[id":14499,"bia":14500,"Ġstretch":14501,"icide":14502,"Ġreprodu":14503,".project":14504,"legend":14505,"enders":14506,"Ġresponses":14507,"Ġont":14508,"ritical":14509,"Ġrefuge":14510,"ĠLi":14511,"Ġ:ĊĊ":14512,"ĠThree":14513,".controller":14514,"_INDEX":14515,"_FOR":14516,"\\Models":14517,"jax":14518,"ĉexit":14519,"Ġâĸ":14520,"Ġcovers":14521,"ĉy":14522,"-.":14523,"INDOW":14524,"Ġfails":14525,"includes":14526,"Ġfault":14527,"Ġly":14528,"Ã±o":14529,".slice":14530,"ILED":14531,"ĠPur":14532,"ĠAsian":14533,"_batch":14534,".Max":14535,"vl":14536,"ĠCOPYRIGHT":14537,"Ġgiant":14538,"ĠManual":14539,"ĠCopy":14540,"ClassName":14541,"Health":14542,"Cursor":14543,"IBOutlet":14544,"Ġtwe":14545,"æ³":14546,"_labels":14547,"Ġcollected":14548,"Ġfurniture":14549,"Ġdealing":14550,"Controls":14551,"ĠHotel":14552,"cks":14553,"Ġchose":14554,"âĶĢ":14555,"odd":14556,"SR":14557,"ÙĬ":14558,"ìĦ":14559,"Ġaccord":14560,"ĠMove":14561,"ĠMode":14562,"ĠMock":14563,"Ġthreads":14564,"++++":14565,"ĠOptions":14566,"Refresh":14567,"ĠDid":14568,"']->":14569,"ucc":14570,"_channel":14571,".abs":14572,"Ġ{},Ċ":14573,"ĠWal":14574,"erior":14575,"Ġmainly":14576,"ĠDriver":14577,"NotFoundException":14578,"Ġcounts":14579,"eam":14580,"Ġ&=":14581,"Question":14582,"ĠAli":14583,"Ġanymore":14584,"detail":14585,"tail":14586,"Ġmile":14587,"ĠFair":14588,"Ġsorry":14589,"Ġsurrounding":14590,"Ġadm":14591,"Dev":14592,"Ġmarijuana":14593,"ĠSound":14594,"ĠAsh":14595,"FD":14596,"Team":14597,".port":14598,"Ġ[]ĊĊ":14599,"ubble":14600,"Ġasc":14601,"Ġintention":14602,"Acc":14603,"chi":14604,"usters":14605,"Ġinspired":14606,"seg":14607,"CLU":14608,"Ġmanip":14609,"Metadata":14610,"Connect":14611,"ĠBeh":14612,"Ġfindings":14613,"Ġassembly":14614,"world":14615,"Ġremained":14616,"Ġuid":14617,"(.":14618,"Ġmx":14619,"Loop":14620,"ĊĊĊĊĊ":14621,"Ġfantastic":14622,"who":14623,"aki":14624,"ĠBasic":14625,"ĠYet":14626,"ĠUsers":14627,"ikip":14628,"Ġheads":14629,"ĠMichigan":14630,"_it":14631,"ĠToronto":14632,"Ġrecording":14633,"Ġsubmitted":14634,"_variable":14635,"mediate":14636,".graphics":14637,"Ġstood":14638,"Ġrear":14639,"velocity":14640,"_MESSAGE":14641,"ĠĠĠĠĠĠĠĠĠĠĠĠĠĠĠĠĠĠĠĠĠĠĠĠĠĠĠĠĠĠĠĠĠĠĠĠĠĠĠĠĠĠĠĠĠĠĠĠĠĠĠĠĠĠĠĠĠĠĠĠĠĠĠĠĠĠĠĠĠĠĠĠĠĠĠ":14642,"roles":14643,"ĠTour":14644,"_year":14645,"endment":14646,"amps":14647,"ĠIreland":14648,"mal":14649,"Ġyounger":14650,"Ġstruggle":14651,"Ġcable":14652,"ĠSDL":14653,"('-":14654,"anes":14655,"ĠNeed":14656,".Row":14657,"Pol":14658,"ĠPH":14659,"_script":14660,"agem":14661,"ĠBas":14662,"_space":14663,".loc":14664,":i":14665,"adr":14666,"Ġengineering":14667,"iten":14668,")&":14669,"Ġuk":14670,"ĠLittle":14671,"_COUNT":14672,"xA":14673,"ArrayList":14674,"æį":14675,"Ġ\"\")Ċ":14676,"Anchor":14677,"Ġhang":14678,"twitter":14679,"Ġcompetitive":14680,".src":14681,"ãģĹ":14682,"Ġtranslate":14683,"ĠCreates":14684,"ooks":14685,"ĠRoll":14686,"'''Ċ":14687,"/sh":14688,"some":14689,"Encoding":14690,".resolve":14691,"Ġdesigner":14692,"ĠStorage":14693,"Ġza":14694,"ĠNever":14695,"Ġsomewhere":14696,"Ġboxes":14697,".source":14698,"Ġpygame":14699,"Ġgrown":14700,".tw":14701,"()),Ċ":14702,"',['":14703,"Ġopponent":14704,"(src":14705,".layer":14706,"APP":14707,"ĠActiv":14708,"Ġguests":14709,"ĠVALUES":14710,"};ĊĊĊ":14711,".native":14712,"Ġamounts":14713,".RE":14714,"Ġclone":14715,"Ġweren":14716,"Ġ\"<<":14717,"_ac":14718,"Ġbreaking":14719,"Ġreliable":14720,".POST":14721,"ĠSky":14722,"Ġ'&":14723,"ĠsavedInstanceState":14724,"asting":14725,"illion":14726,"comments":14727,"ulty":14728,".menu":14729,"/config":14730,"ĠĊĊĊ":14731,"TODO":14732,"Ġpurchased":14733,"_cor":14734,"ĉauto":14735,"CompatActivity":14736,"complete":14737,"_graph":14738,"isodes":14739,"Ġsituations":14740,"ĠHor":14741,"Receive":14742,"âĢľWe":14743,"Ġentities":14744,".assertEquals":14745,"Ð¾Ðº":14746,"ĠSans":14747,"vince":14748,"rompt":14749,"=Ċ":14750,"Ġ/.":14751,".Select":14752,"ylv":14753,"Ġbatt":14754,"Audio":14755,"Ġincreasingly":14756,".Bundle":14757,"Ġexplains":14758,"theast":14759,".offset":14760,"Ġhal":14761,"Ġtechnique":14762,"_limit":14763,"Ġdrawn":14764,"AYER":14765,"Ġfeatured":14766,"yyyy":14767,"atin":14768,"phen":14769,"achel":14770,"!\\":14771,"lower":14772,"ĠGR":14773,"Ġpag":14774,"ĠParse":14775,"Ġtou":14776,"ä¸Ģ":14777,"Distance":14778,"IndexPath":14779,"Ġhell":14780,"sim":14781,"UTTON":14782,"Usage":14783,"elenium":14784,"ĠFall":14785,"Ġ\".$":14786,"ĠMu":14787,"Ġcruc":14788,"Ġsont":14789,"REFIX":14790,"Ġinterior":14791,"ĠOlymp":14792,".AutoScale":14793,"para":14794,"AxisAlignment":14795,"Ġriver":14796,"Dto":14797,"Ġwithdraw":14798,"React":14799,"-class":14800,"before":14801,"_alloc":14802,"Contents":14803,"ĠWas":14804,"ICT":14805,"Ġformula":14806,"Ġindicates":14807,"ĠĠĠĠĊĊ":14808,"_store":14809,"itting":14810,"ĠItalian":14811,"_Set":14812,"_report":14813,"Ġpid":14814,"_VER":14815,"Ġwins":14816,"ĠCloud":14817,"\"){Ċ":14818,"chester":14819,"Ġdenied":14820,"Ġwird":14821,"ĠStep":14822,"Ġinvestors":14823,"bold":14824,"_display":14825,"ouver":14826,"orer":14827,"Reset":14828,"Ġsurgery":14829,"Ġstrategies":14830,"/material":14831,"_unit":14832,"Ġcouncil":14833,".Per":14834,"ĠâĢŀ":14835,"Ġreform":14836,"Framework":14837,"Ġlisting":14838,"_btn":14839,"Ġbis":14840,"%d":14841,"egas":14842,"Ġsuddenly":14843,"_SER":14844,"Ġao":14845,"_directory":14846,"fas":14847,"Ġpremium":14848,"Ġtracking":14849,"ĠBL":14850,"Ġmature":14851,"Ġbathroom":14852,"Ġ'/'":14853,"ĠÄĳ":14854,"Performed":14855,"Ġsoldiers":14856,"arnings":14857,"Ġwalked":14858,"-con":14859,"bottom":14860,"Ġsurprising":14861,"Ġgene":14862,
[...]
